/* Copyright 2020 The TensorFlow Authors. All Rights Reserved.

Licensed under the Apache License, Version 2.0 (the "License");
you may not use this file except in compliance with the License.
You may obtain a copy of the License at

    http://www.apache.org/licenses/LICENSE-2.0

Unless required by applicable law or agreed to in writing, software
distributed under the License is distributed on an "AS IS" BASIS,
WITHOUT WARRANTIES OR CONDITIONS OF ANY KIND, either express or implied.
See the License for the specific language governing permissions and
limitations under the License.
==============================================================================*/

// Automatically created from a TensorFlow Lite flatbuffer using the command:
// xxd -i model.tflite > model.cc

// This is a standard TensorFlow Lite model file that has been converted into a
// C data array, so it can be easily compiled into a binary for devices that
// don't have a file system.

// See train/README.md for a full description of the creation process.

#include "model.h"

// Keep model aligned to 8 bytes to guarantee aligned 64-bit accesses.
alignas(8) const unsigned char g_model[] = {0x20, 0x00, 0x00, 0x00, 0x54, 0x46, 0x4c, 0x33, 0x00, 0x00, 0x00, 0x00,
                                            0x14, 0x00, 0x20, 0x00, 0x1c, 0x00, 0x18, 0x00, 0x14, 0x00, 0x10, 0x00,
                                            0x0c, 0x00, 0x00, 0x00, 0x08, 0x00, 0x04, 0x00, 0x14, 0x00, 0x00, 0x00,
                                            0x1c, 0x00, 0x00, 0x00, 0x8c, 0x00, 0x00, 0x00, 0x0c, 0x01, 0x00, 0x00,
                                            0x64, 0x58, 0x00, 0x00, 0x74, 0x58, 0x00, 0x00, 0xb4, 0x64, 0x00, 0x00,
                                            0x03, 0x00, 0x00, 0x00, 0x01, 0x00, 0x00, 0x00, 0x04, 0x00, 0x00, 0x00,
                                            0x9a, 0xa6, 0xff, 0xff, 0x0c, 0x00, 0x00, 0x00, 0x1c, 0x00, 0x00, 0x00,
                                            0x3c, 0x00, 0x00, 0x00, 0x0f, 0x00, 0x00, 0x00, 0x73, 0x65, 0x72, 0x76,
                                            0x69, 0x6e, 0x67, 0x5f, 0x64, 0x65, 0x66, 0x61, 0x75, 0x6c, 0x74, 0x00,
                                            0x01, 0x00, 0x00, 0x00, 0x04, 0x00, 0x00, 0x00, 0x68, 0xff, 0xff, 0xff,
                                            0x0d, 0x00, 0x00, 0x00, 0x04, 0x00, 0x00, 0x00, 0x08, 0x00, 0x00, 0x00,
                                            0x6f, 0x75, 0x74, 0x70, 0x75, 0x74, 0x5f, 0x30, 0x00, 0x00, 0x00, 0x00,
                                            0x01, 0x00, 0x00, 0x00, 0x04, 0x00, 0x00, 0x00, 0x7e, 0xa7, 0xff, 0xff,
                                            0x04, 0x00, 0x00, 0x00, 0x0e, 0x00, 0x00, 0x00, 0x6b, 0x65, 0x72, 0x61,
                                            0x73, 0x5f, 0x74, 0x65, 0x6e, 0x73, 0x6f, 0x72, 0x5f, 0x36, 0x00, 0x00,
                                            0x03, 0x00, 0x00, 0x00, 0x5c, 0x00, 0x00, 0x00, 0x2c, 0x00, 0x00, 0x00,
                                            0x04, 0x00, 0x00, 0x00, 0xb8, 0xff, 0xff, 0xff, 0x11, 0x00, 0x00, 0x00,
                                            0x04, 0x00, 0x00, 0x00, 0x13, 0x00, 0x00, 0x00, 0x43, 0x4f, 0x4e, 0x56,
                                            0x45, 0x52, 0x53, 0x49, 0x4f, 0x4e, 0x5f, 0x4d, 0x45, 0x54, 0x41, 0x44,
                                            0x41, 0x54, 0x41, 0x00, 0xdc, 0xff, 0xff, 0xff, 0x10, 0x00, 0x00, 0x00,
                                            0x04, 0x00, 0x00, 0x00, 0x13, 0x00, 0x00, 0x00, 0x6d, 0x69, 0x6e, 0x5f,
                                            0x72, 0x75, 0x6e, 0x74, 0x69, 0x6d, 0x65, 0x5f, 0x76, 0x65, 0x72, 0x73,
                                            0x69, 0x6f, 0x6e, 0x00, 0x08, 0x00, 0x0c, 0x00, 0x08, 0x00, 0x04, 0x00,
                                            0x08, 0x00, 0x00, 0x00, 0x0f, 0x00, 0x00, 0x00, 0x04, 0x00, 0x00, 0x00,
                                            0x13, 0x00, 0x00, 0x00, 0x6d, 0x69, 0x6e, 0x5f, 0x72, 0x75, 0x6e, 0x74,
                                            0x69, 0x6d, 0x65, 0x5f, 0x76, 0x65, 0x72, 0x73, 0x69, 0x6f, 0x6e, 0x00,
                                            0x12, 0x00, 0x00, 0x00, 0x54, 0x57, 0x00, 0x00, 0x4c, 0x57, 0x00, 0x00,
                                            0x34, 0x57, 0x00, 0x00, 0xfc, 0x56, 0x00, 0x00, 0x4c, 0x56, 0x00, 0x00,
                                            0xfc, 0x55, 0x00, 0x00, 0x6c, 0x01, 0x00, 0x00, 0x3c, 0x01, 0x00, 0x00,
                                            0xe4, 0x00, 0x00, 0x00, 0xdc, 0x00, 0x00, 0x00, 0xd4, 0x00, 0x00, 0x00,
                                            0xcc, 0x00, 0x00, 0x00, 0xc4, 0x00, 0x00, 0x00, 0xbc, 0x00, 0x00, 0x00,
                                            0xb4, 0x00, 0x00, 0x00, 0x94, 0x00, 0x00, 0x00, 0x74, 0x00, 0x00, 0x00,
                                            0x04, 0x00, 0x00, 0x00, 0x6a, 0xa8, 0xff, 0xff, 0x04, 0x00, 0x00, 0x00,
                                            0x60, 0x00, 0x00, 0x00, 0x0c, 0x00, 0x00, 0x00, 0x08, 0x00, 0x0e, 0x00,
                                            0x08, 0x00, 0x04, 0x00, 0x08, 0x00, 0x00, 0x00, 0x10, 0x00, 0x00, 0x00,
                                            0x28, 0x00, 0x00, 0x00, 0x00, 0x00, 0x06, 0x00, 0x08, 0x00, 0x04, 0x00,
                                            0x06, 0x00, 0x00, 0x00, 0x04, 0x00, 0x00, 0x00, 0x01, 0x00, 0x00, 0x00,
                                            0xeb, 0x03, 0x00, 0x00, 0x0c, 0x00, 0x18, 0x00, 0x14, 0x00, 0x10, 0x00,
                                            0x0c, 0x00, 0x04, 0x00, 0x0c, 0x00, 0x00, 0x00, 0xe0, 0x80, 0x38, 0xab,
                                            0x3a, 0xe5, 0x1e, 0x62, 0x02, 0x00, 0x00, 0x00, 0x02, 0x00, 0x00, 0x00,
                                            0x04, 0x00, 0x00, 0x00, 0x06, 0x00, 0x00, 0x00, 0x32, 0x2e, 0x31, 0x39,
                                            0x2e, 0x30, 0x00, 0x00, 0xd6, 0xa8, 0xff, 0xff, 0x04, 0x00, 0x00, 0x00,
                                            0x10, 0x00, 0x00, 0x00, 0x00, 0x00, 0x00, 0x00, 0x00, 0x00, 0x00, 0x00,
                                            0x00, 0x00, 0x00, 0x00, 0x00, 0x00, 0x00, 0x00, 0xf2, 0xa8, 0xff, 0xff,
                                            0x04, 0x00, 0x00, 0x00, 0x10, 0x00, 0x00, 0x00, 0x31, 0x2e, 0x31, 0x34,
                                            0x2e, 0x30, 0x00, 0x00, 0x00, 0x00, 0x00, 0x00, 0x00, 0x00, 0x00, 0x00,
                                            0x14, 0x9e, 0xff, 0xff, 0x18, 0x9e, 0xff, 0xff, 0x1c, 0x9e, 0xff, 0xff,
                                            0x20, 0x9e, 0xff, 0xff, 0x24, 0x9e, 0xff, 0xff, 0x28, 0x9e, 0xff, 0xff,
                                            0x26, 0xa9, 0xff, 0xff, 0x04, 0x00, 0x00, 0x00, 0x48, 0x00, 0x00, 0x00,
                                            0x9c, 0x2e, 0x7f, 0x54, 0x45, 0x0b, 0x2b, 0xcb, 0xc0, 0x4d, 0x2c, 0xa1,
                                            0x4f, 0x0c, 0x81, 0xf9, 0x82, 0xba, 0x8f, 0xec, 0x62, 0xe6, 0xbf, 0xf0,
                                            0x7f, 0x28, 0xaa, 0x6f, 0x7f, 0xd2, 0x31, 0x6e, 0x98, 0xfb, 0x3e, 0x7d,
                                            0xe0, 0x7f, 0x34, 0x24, 0x68, 0xdb, 0x33, 0x3f, 0x65, 0xf0, 0x3b, 0x3b,
                                            0x7f, 0x33, 0x73, 0xa7, 0x75, 0x20, 0x22, 0xf2, 0x81, 0x55, 0x2f, 0xb9,
                                            0x27, 0x17, 0x0b, 0x25, 0x41, 0x2b, 0xab, 0x81, 0x9a, 0x11, 0x40, 0x23,
                                            0x7a, 0xa9, 0xff, 0xff, 0x04, 0x00, 0x00, 0x00, 0x20, 0x00, 0x00, 0x00,
                                            0x07, 0xe9, 0xff, 0xff, 0x73, 0x11, 0x00, 0x00, 0x90, 0x00, 0x00, 0x00,
                                            0xaa, 0xb1, 0xff, 0xff, 0x6f, 0xce, 0xff, 0xff, 0xf2, 0xcf, 0xff, 0xff,
                                            0xf7, 0xf2, 0xff, 0xff, 0xd7, 0x02, 0x00, 0x00, 0xa6, 0xa9, 0xff, 0xff,
                                            0x04, 0x00, 0x00, 0x00, 0x80, 0x54, 0x00, 0x00, 0xfd, 0x15, 0xfb, 0xfd,
                                            0xfd, 0xfa, 0x04, 0x08, 0x0d, 0x0f, 0x06, 0x00, 0xfd, 0x08, 0x03, 0xf1,
                                            0xe9, 0x06, 0xfa, 0xf0, 0xfa, 0xd7, 0xf4, 0xf2, 0xe0, 0x13, 0xee, 0xed,
                                            0xf0, 0xec, 0xed, 0x06, 0xdd, 0x05, 0xfb, 0xef, 0xff, 0xe6, 0xfc, 0x0c,
                                            0xdb, 0x0e, 0xf3, 0xfc, 0xf2, 0xfa, 0xe6, 0x16, 0xe7, 0x0c, 0xf0, 0x00,
                                            0x03, 0xed, 0xf2, 0x03, 0xeb, 0x0e, 0x06, 0x06, 0x05, 0xfe, 0xfd, 0x02,
                                            0xf0, 0x18, 0x0f, 0xf3, 0xf3, 0xe2, 0xf6, 0xf8, 0xcf, 0x07, 0xf1, 0xea,
                                            0xe5, 0xd8, 0xe8, 0xf8, 0xd6, 0x04, 0xf0, 0xed, 0xea, 0xeb, 0xee, 0xf5,
                                            0xec, 0x10, 0xf3, 0xeb, 0xfb, 0xf5, 0xec, 0xf8, 0xff, 0x14, 0xf3, 0x08,
                                            0x07, 0x11, 0x1b, 0x01, 0x00, 0x1a, 0xf5, 0x07, 0xfd, 0x06, 0x0c, 0x01,
                                            0x03, 0x0f, 0xfa, 0xfe, 0xfd, 0xfa, 0x0b, 0xfd, 0xee, 0x1b, 0xf5, 0xfe,
                                            0x09, 0xf4, 0xf6, 0xf2, 0x08, 0x10, 0xff, 0x07, 0xff, 0x0f, 0x02, 0x11,
                                            0x07, 0xf3, 0x04, 0x0d, 0x0f, 0x13, 0xfd, 0x10, 0x07, 0xdb, 0x19, 0x01,
                                            0x02, 0x09, 0x03, 0x03, 0x07, 0xdf, 0x03, 0x0a, 0xf6, 0x00, 0x0c, 0x02,
                                            0xfd, 0xd8, 0x00, 0x0b, 0xf6, 0xfe, 0x0e, 0x07, 0x03, 0xeb, 0x05, 0xfe,
                                            0x00, 0x0b, 0x10, 0x07, 0x00, 0xf6, 0x15, 0xf6, 0x04, 0xf7, 0x07, 0x00,
                                            0xf6, 0xf8, 0xfe, 0xfd, 0xfb, 0x02, 0x03, 0x10, 0x02, 0x00, 0x0c, 0xe8,
                                            0x01, 0xf9, 0x01, 0x10, 0xfb, 0x06, 0xe6, 0x04, 0x01, 0x0a, 0x0d, 0xf8,
                                            0xfd, 0x15, 0xff, 0x0b, 0x12, 0x06, 0xfd, 0xfd, 0x0d, 0x1a, 0xf0, 0x12,
                                            0x13, 0x1d, 0x13, 0x1b, 0x04, 0x00, 0x14, 0x0d, 0x00, 0x0f, 0x0c, 0x06,
                                            0xf9, 0x05, 0x05, 0x0e, 0xff, 0xfd, 0x0d, 0x0c, 0x06, 0x00, 0x1a, 0x0c,
                                            0xf5, 0xff, 0x0a, 0xfa, 0xfb, 0x08, 0x13, 0x0c, 0x0f, 0x01, 0x0a, 0xef,
                                            0xfa, 0xfa, 0x04, 0xfe, 0xf8, 0x03, 0xfe, 0xee, 0xfd, 0x00, 0x03, 0x05,
                                            0xff, 0x00, 0x0b, 0xd7, 0x03, 0xfe, 0xfe, 0x02, 0x12, 0xfd, 0x02, 0xd8,
                                            0x08, 0x01, 0xf1, 0xfc, 0x06, 0x03, 0x10, 0xe8, 0x0a, 0x06, 0xf7, 0x10,
                                            0x0b, 0xff, 0x02, 0xeb, 0xfe, 0x0e, 0x04, 0x18, 0xfc, 0x03, 0x15, 0xf4,
                                            0xf0, 0x15, 0x03, 0xf2, 0x0b, 0xfb, 0xf6, 0x15, 0x07, 0x16, 0xf4, 0x07,
                                            0x04, 0x16, 0x00, 0xf5, 0x15, 0x0a, 0x0d, 0x06, 0x0c, 0x05, 0x03, 0xf0,
                                            0x00, 0x24, 0xe5, 0xfe, 0xfa, 0xfd, 0xf4, 0xfd, 0xfa, 0x1c, 0xde, 0xf3,
                                            0xf0, 0x04, 0xee, 0xe9, 0xfe, 0xf7, 0xed, 0xf7, 0xfe, 0xf9, 0x0d, 0xf2,
                                            0xeb, 0xfc, 0xf7, 0x05, 0x03, 0xf1, 0x10, 0xc8, 0xe3, 0x1a, 0xef, 0xfb,
                                            0xfe, 0xfa, 0x09, 0xba, 0xf0, 0x07, 0xfb, 0xfd, 0xfd, 0x00, 0x0b, 0xa6,
                                            0xfc, 0xfd, 0x15, 0x09, 0x0a, 0x14, 0x25, 0xb3, 0x11, 0x04, 0x03, 0xfe,
                                            0x0d, 0x0a, 0x13, 0xd9, 0x02, 0xfc, 0x04, 0x01, 0x0b, 0x0b, 0xfe, 0xfa,
                                            0x0d, 0x0a, 0xec, 0x0f, 0x03, 0x0d, 0x10, 0x05, 0x13, 0x15, 0xfc, 0x06,
                                            0x03, 0x0a, 0xff, 0xf8, 0xfa, 0x1b, 0xff, 0xff, 0xff, 0xf9, 0xfd, 0xeb,
                                            0x0f, 0x1e, 0x0b, 0x03, 0x01, 0xef, 0x00, 0x14, 0xf6, 0x24, 0xf5, 0xf8,
                                            0x02, 0xf2, 0xea, 0x0f, 0xf6, 0x03, 0xdf, 0xf7, 0xea, 0xf3, 0xf1, 0xfb,
                                            0x02, 0x16, 0xe9, 0xed, 0xf2, 0xfd, 0xf2, 0x17, 0xf7, 0x13, 0x00, 0xf5,
                                            0xfd, 0xf4, 0xfb, 0xee, 0xf5, 0x20, 0xf2, 0xed, 0xf6, 0xfd, 0xe8, 0xc2,
                                            0xf8, 0xfa, 0xee, 0x0a, 0xfc, 0x03, 0x01, 0x96, 0x0c, 0x00, 0xf4, 0x1c,
                                            0x0f, 0x0c, 0x1d, 0x81, 0x05, 0x12, 0xfd, 0x19, 0x08, 0x07, 0x0f, 0x96,
                                            0xfe, 0x19, 0xf4, 0x08, 0xfe, 0xfe, 0x04, 0xb9, 0xfd, 0x0b, 0xdd, 0x0e,
                                            0x07, 0xf9, 0x08, 0xf5, 0x12, 0x17, 0x16, 0x09, 0x0b, 0x03, 0xf5, 0x14,
                                            0x07, 0x05, 0x00, 0xf1, 0xf0, 0x00, 0x01, 0x02, 0xfa, 0x14, 0x0b, 0xf7,
                                            0xf1, 0xe6, 0x00, 0x0e, 0xfb, 0x0f, 0xf4, 0xfc, 0xe9, 0xf5, 0xe5, 0x35,
                                            0xf9, 0x18, 0xf1, 0xf6, 0xf4, 0x02, 0xdb, 0x36, 0xff, 0x1e, 0x0c, 0xfc,
                                            0x09, 0x10, 0xfb, 0x34, 0x12, 0x0b, 0x06, 0x00, 0x08, 0x10, 0xf5, 0x33,
                                            0xe7, 0x31, 0x26, 0xf5, 0xee, 0xfa, 0x04, 0x16, 0xde, 0x05, 0x03, 0xf7,
                                            0xee, 0xe9, 0xfa, 0xc3, 0xee, 0x0b, 0xe3, 0x04, 0x01, 0xf7, 0x16, 0xab,
                                            0xfc, 0x17, 0xfd, 0xfa, 0x04, 0x06, 0x15, 0xaf, 0xf0, 0x0d, 0x02, 0x08,
                                            0xf7, 0x03, 0x00, 0xff, 0xfb, 0x08, 0x03, 0xf9, 0xf7, 0xf6, 0xfe, 0x24,
                                            0x03, 0x08, 0x09, 0xf8, 0x0e, 0xfa, 0xf5, 0x21, 0xf2, 0x0b, 0xfc, 0xfe,
                                            0xeb, 0xec, 0x14, 0x04, 0xd9, 0x13, 0xfa, 0xef, 0xe4, 0xec, 0x05, 0x23,
                                            0xf7, 0x10, 0x18, 0xff, 0x01, 0x06, 0xe3, 0x2b, 0x10, 0x05, 0x16, 0x11,
                                            0x0c, 0x0b, 0xeb, 0x19, 0x1a, 0x02, 0x0a, 0x0e, 0x1a, 0x1d, 0x08, 0x16,
                                            0x20, 0xf1, 0xf9, 0x17, 0x0e, 0x1e, 0xfa, 0x28, 0xed, 0x1f, 0x04, 0xfe,
                                            0x05, 0xf9, 0x1a, 0x02, 0xde, 0xe9, 0x04, 0xeb, 0xe5, 0xe9, 0x03, 0xd9,
                                            0xeb, 0x0f, 0xf8, 0xfc, 0xf8, 0xf3, 0x02, 0xbf, 0x05, 0x27, 0xf9, 0x07,
                                            0x0a, 0xfd, 0xfa, 0xec, 0x08, 0x13, 0xe8, 0xfd, 0x00, 0xf3, 0xfb, 0x09,
                                            0xf9, 0x06, 0xf5, 0xf6, 0x01, 0x02, 0x08, 0x14, 0x09, 0x09, 0x20, 0x0c,
                                            0x08, 0x0c, 0x16, 0x2f, 0xf7, 0x07, 0xe9, 0x20, 0x06, 0x0f, 0x0e, 0x09,
                                            0x11, 0x0b, 0xfb, 0x0e, 0x17, 0x08, 0x14, 0x05, 0x1a, 0xeb, 0x1d, 0x03,
                                            0x18, 0x09, 0xfb, 0x2c, 0x12, 0xd8, 0x1a, 0x0f, 0x08, 0x19, 0x07, 0x2c,
                                            0x05, 0xee, 0xfc, 0x08, 0x05, 0x11, 0x06, 0x26, 0x13, 0xf5, 0xfd, 0x07,
                                            0xfd, 0x09, 0x05, 0x29, 0xf6, 0x0d, 0xfb, 0xf9, 0xf5, 0xf8, 0x1b, 0x21,
                                            0xf8, 0x02, 0x03, 0xf8, 0x00, 0x06, 0xfe, 0xe1, 0x01, 0xfd, 0xd9, 0x0a,
                                            0xfc, 0xff, 0x02, 0xf0, 0x0d, 0x13, 0xeb, 0x09, 0x04, 0xf9, 0xf4, 0x21,
                                            0x18, 0x0a, 0x06, 0x04, 0x0b, 0x14, 0x0a, 0x21, 0x14, 0x0b, 0x09, 0xf7,
                                            0x05, 0x16, 0x06, 0x19, 0x1c, 0x1e, 0x15, 0x08, 0x07, 0x11, 0x1d, 0x26,
                                            0x15, 0x0b, 0x0e, 0x21, 0x27, 0x2c, 0x12, 0x18, 0x24, 0x06, 0x21, 0x26,
                                            0x25, 0x17, 0x22, 0x29, 0x16, 0xfb, 0x0a, 0x0f, 0x0d, 0x1c, 0x14, 0x18,
                                            0xfe, 0xdc, 0x06, 0x15, 0x01, 0x09, 0x01, 0x19, 0xf2, 0xf1, 0xe8, 0xfa,
                                            0x09, 0x02, 0x04, 0x1c, 0xf7, 0x02, 0x06, 0xf3, 0x01, 0xfb, 0x00, 0x24,
                                            0xfb, 0x0c, 0x1d, 0x02, 0xfb, 0x13, 0x09, 0x29, 0x15, 0xfe, 0x19, 0xfb,
                                            0x04, 0x0c, 0x06, 0x0b, 0xfb, 0x05, 0xea, 0xff, 0x0e, 0x10, 0x04, 0x04,
                                            0xff, 0xf6, 0xf3, 0x0c, 0x07, 0x00, 0xed, 0x2a, 0xfc, 0x0f, 0xf4, 0x0d,
                                            0x15, 0x0c, 0x00, 0x21, 0xfe, 0x01, 0x10, 0xfa, 0x0f, 0x0d, 0x0d, 0x38,
                                            0x12, 0x04, 0x14, 0x0a, 0x02, 0x01, 0x00, 0x2a, 0x2c, 0x05, 0x27, 0x11,
                                            0x29, 0x2f, 0x13, 0x25, 0x20, 0x0e, 0x23, 0x1e, 0x25, 0x1f, 0x15, 0x0c,
                                            0x18, 0x0e, 0x09, 0x05, 0x0c, 0x0b, 0x10, 0x20, 0x08, 0x16, 0xed, 0x10,
                                            0x04, 0x0c, 0x14, 0x17, 0x05, 0x14, 0xed, 0x06, 0x04, 0x0c, 0x05, 0x1c,
                                            0x11, 0x0c, 0xfb, 0xf8, 0x04, 0x0d, 0xf9, 0x1d, 0x14, 0x01, 0xf8, 0xfc,
                                            0x01, 0x05, 0xf7, 0x01, 0x19, 0x06, 0x13, 0x13, 0x07, 0x15, 0x01, 0x0e,
                                            0x11, 0x00, 0x23, 0x18, 0x04, 0x16, 0x17, 0x15, 0xf9, 0xeb, 0x2b, 0x0e,
                                            0x04, 0x02, 0x01, 0x26, 0x05, 0x11, 0x1e, 0x1b, 0x07, 0x0a, 0x0d, 0x38,
                                            0x0d, 0x0a, 0x2b, 0x00, 0x08, 0x0f, 0x0f, 0x18, 0xf8, 0xff, 0x0d, 0x0c,
                                            0x01, 0xfb, 0xf6, 0x04, 0x2d, 0x18, 0x21, 0x1a, 0x23, 0x2a, 0x0e, 0x17,
                                            0x0b, 0x05, 0x05, 0x16, 0x18, 0x0a, 0x0b, 0x04, 0xfb, 0x1a, 0x0a, 0x09,
                                            0x08, 0x06, 0x00, 0x1b, 0x04, 0x32, 0xf7, 0x0c, 0x07, 0x03, 0xff, 0x16,
                                            0x06, 0x18, 0xf7, 0x15, 0x14, 0x03, 0xff, 0x22, 0x08, 0x0b, 0xd0, 0x0d,
                                            0xfd, 0xf4, 0xed, 0x17, 0x09, 0xfb, 0xe3, 0xf1, 0xfe, 0x07, 0xe9, 0xf6,
                                            0xfd, 0x05, 0x19, 0x03, 0xfb, 0x07, 0xf5, 0x0a, 0x06, 0xf5, 0x0d, 0xfe,
                                            0xff, 0x07, 0x11, 0x24, 0x0a, 0xf5, 0x31, 0x10, 0x0d, 0x01, 0x05, 0x32,
                                            0x13, 0xf7, 0x2d, 0x07, 0x16, 0x14, 0x14, 0x3a, 0x14, 0x1e, 0x1f, 0x05,
                                            0x10, 0x13, 0x09, 0x22, 0x12, 0x15, 0x00, 0xf9, 0xfa, 0x07, 0x09, 0x01,
                                            0x21, 0x0b, 0x26, 0x10, 0x0d, 0x17, 0x05, 0x02, 0x01, 0x17, 0x09, 0xfe,
                                            0x02, 0x03, 0x0d, 0x12, 0xf6, 0xfc, 0x07, 0xf6, 0xee, 0x06, 0xfd, 0x15,
                                            0x11, 0x05, 0x18, 0x05, 0x03, 0x05, 0xff, 0x20, 0x1e, 0xf5, 0x17, 0x0c,
                                            0x0b, 0x14, 0xf4, 0x22, 0x21, 0x0e, 0xfe, 0x0b, 0x05, 0x0c, 0xf9, 0x1a,
                                            0x09, 0x08, 0xf8, 0x00, 0x0e, 0x06, 0xf5, 0x0e, 0xfb, 0xfe, 0x18, 0xfb,
                                            0x09, 0xfa, 0xfc, 0x24, 0x06, 0x0c, 0x41, 0x03, 0xf9, 0x0a, 0x05, 0x17,
                                            0x0d, 0x0b, 0x3a, 0x08, 0x0c, 0x0e, 0x06, 0x29, 0x1a, 0x08, 0x19, 0x00,
                                            0x06, 0x07, 0x00, 0x43, 0x06, 0x0b, 0x19, 0xff, 0x12, 0x0b, 0x00, 0x2c,
                                            0x0b, 0x02, 0x0a, 0x02, 0x0d, 0xf9, 0x08, 0xf8, 0x0b, 0x1c, 0x00, 0xfd,
                                            0x0d, 0xfc, 0x04, 0xfb, 0xe8, 0x0e, 0xd7, 0xfd, 0xf0, 0xe8, 0x09, 0xf0,
                                            0xdc, 0xf6, 0xe9, 0xd9, 0xef, 0xe1, 0xfe, 0xfa, 0xf7, 0xe5, 0x07, 0xe2,
                                            0xeb, 0xea, 0xe7, 0x19, 0x01, 0xee, 0xf6, 0xea, 0xf6, 0xe1, 0xeb, 0x1e,
                                            0x04, 0xfc, 0x09, 0xfd, 0xee, 0x04, 0xe6, 0x24, 0x00, 0xf4, 0xe9, 0xf3,
                                            0xf3, 0xf4, 0xd5, 0x17, 0xfc, 0x04, 0xe8, 0xf9, 0xe2, 0xfd, 0xed, 0x0b,
                                            0x03, 0x11, 0xf4, 0xe9, 0xf1, 0xed, 0xdc, 0x17, 0xfd, 0x0d, 0xfc, 0xf5,
                                            0xf3, 0xe2, 0xdc, 0x17, 0xfe, 0xff, 0xfe, 0xf4, 0x04, 0xee, 0xe4, 0x1e,
                                            0x13, 0x16, 0xf0, 0x10, 0x05, 0x0f, 0x08, 0x15, 0x0a, 0x17, 0x0a, 0x0b,
                                            0x04, 0x13, 0x08, 0x15, 0xf5, 0xee, 0x9f, 0xf1, 0x0e, 0x0a, 0xf6, 0xc9,
                                            0xee, 0xd4, 0xb2, 0x00, 0xf5, 0x24, 0x05, 0xc3, 0xf3, 0xe1, 0xd5, 0x12,
                                            0x1a, 0x07, 0xf1, 0xfb, 0xe5, 0xe4, 0xf2, 0x23, 0x1e, 0x17, 0x19, 0x1f,
                                            0x18, 0xeb, 0x05, 0x33, 0x19, 0x23, 0x1f, 0x35, 0x10, 0xef, 0x34, 0x2f,
                                            0x20, 0x26, 0x3f, 0x28, 0xea, 0xe8, 0x0f, 0x22, 0x03, 0x14, 0x15, 0x0a,
                                            0xf7, 0xd6, 0x12, 0x21, 0x1e, 0x11, 0x1d, 0x0a, 0xd7, 0xed, 0x20, 0x16,
                                            0x27, 0x0c, 0x10, 0x22, 0xf5, 0xe9, 0x1b, 0x17, 0x14, 0xf2, 0xf6, 0x05,
                                            0x0c, 0xed, 0x0c, 0xfa, 0x00, 0x12, 0xfb, 0x06, 0xef, 0xe6, 0xf1, 0xe2,
                                            0xe7, 0xf0, 0xdd, 0xbe, 0xe2, 0xdc, 0xaa, 0x00, 0x01, 0xee, 0xea, 0xce,
                                            0x02, 0xf1, 0xa7, 0x18, 0xf0, 0x09, 0x08, 0xd6, 0x1c, 0xe6, 0xd5, 0x05,
                                            0x10, 0x16, 0x16, 0xff, 0x08, 0xf4, 0x01, 0x10, 0x0b, 0x1f, 0x06, 0x11,
                                            0x40, 0xec, 0x17, 0x0d, 0x19, 0x25, 0x20, 0x02, 0x42, 0xc9, 0xf5, 0x28,
                                            0x1b, 0x13, 0x16, 0x12, 0x46, 0xcf, 0x1b, 0x07, 0x14, 0x07, 0x0d, 0x32,
                                            0x10, 0xc2, 0x11, 0x05, 0xf5, 0x13, 0x18, 0x1c, 0x03, 0x81, 0x08, 0x17,
                                            0xff, 0x22, 0x19, 0x29, 0x08, 0x9a, 0x15, 0x14, 0x1c, 0x00, 0x20, 0x19,
                                            0xf9, 0xc0, 0x13, 0x0f, 0x0a, 0x02, 0x0c, 0xfa, 0xdf, 0xe9, 0x07, 0x12,
                                            0x10, 0xf5, 0x10, 0xf5, 0xf2, 0xdb, 0x18, 0xd8, 0xff, 0xed, 0x01, 0xe5,
                                            0x15, 0xd9, 0x06, 0x0d, 0x01, 0x20, 0x2e, 0xe7, 0x1b, 0xe7, 0xc9, 0xf1,
                                            0xf4, 0x1e, 0xff, 0xe7, 0x19, 0xdc, 0xf1, 0x15, 0x17, 0x24, 0x27, 0x10,
                                            0x1a, 0xdf, 0x23, 0x0f, 0x11, 0x07, 0xfb, 0x1b, 0x06, 0xf3, 0xee, 0x1d,
                                            0x14, 0x1b, 0x10, 0x30, 0x28, 0xf2, 0x17, 0x09, 0xf9, 0xf6, 0xf2, 0x3d,
                                            0x1a, 0x05, 0x20, 0xfa, 0xf8, 0x0e, 0x10, 0x58, 0x14, 0x07, 0x1b, 0x08,
                                            0xf1, 0x07, 0xf3, 0x53, 0x0d, 0xeb, 0x2a, 0xf7, 0x01, 0xf5, 0x08, 0x1e,
                                            0x0c, 0xcb, 0xf1, 0xfc, 0xf1, 0xf2, 0xf6, 0xe5, 0xf5, 0xda, 0xfa, 0x13,
                                            0x05, 0xff, 0x15, 0xda, 0x04, 0xf6, 0xe9, 0x0a, 0xfd, 0x1d, 0x01, 0xc6,
                                            0x0c, 0xe5, 0x13, 0x01, 0x0a, 0xf4, 0xfa, 0xee, 0x0f, 0x06, 0x0c, 0x0f,
                                            0xff, 0x11, 0xfa, 0x0a, 0x22, 0xef, 0xff, 0xf9, 0x13, 0x04, 0xf3, 0xf7,
                                            0x20, 0xeb, 0x00, 0x14, 0x29, 0x14, 0xff, 0x27, 0x26, 0x1e, 0x0b, 0xfb,
                                            0x16, 0x04, 0xee, 0x3d, 0x1a, 0x18, 0x0c, 0xf7, 0x0c, 0x0b, 0xd8, 0x40,
                                            0xfc, 0x1b, 0xf6, 0x04, 0x06, 0xfa, 0xda, 0x3f, 0xf6, 0x0e, 0x12, 0xdd,
                                            0xe7, 0xf5, 0xdf, 0x32, 0xf2, 0x35, 0x3b, 0xdd, 0xe8, 0xec, 0xed, 0x1c,
                                            0x00, 0x49, 0x3c, 0xf9, 0xe6, 0xdd, 0xf9, 0x0c, 0xe5, 0x1e, 0x24, 0xe0,
                                            0xee, 0xf1, 0xf4, 0x04, 0xf0, 0xfc, 0x1a, 0xee, 0xfe, 0xed, 0x03, 0xdd,
                                            0x0d, 0xd8, 0x05, 0xfe, 0x0b, 0x00, 0x0d, 0xc9, 0x0d, 0xfd, 0x04, 0x05,
                                            0x1d, 0xf9, 0x13, 0xd7, 0x00, 0xfe, 0xe6, 0xec, 0xfe, 0xe4, 0xfe, 0xf8,
                                            0x14, 0xf6, 0xf4, 0xf9, 0x11, 0x00, 0xf7, 0xe2, 0x1a, 0xf7, 0x0b, 0x09,
                                            0x13, 0xf2, 0xfd, 0x29, 0x00, 0x0f, 0xed, 0xe5, 0x0a, 0xee, 0xda, 0x34,
                                            0x16, 0x10, 0x0c, 0xfd, 0xf0, 0x0e, 0xb6, 0x42, 0x01, 0x1f, 0x18, 0xe8,
                                            0xee, 0xe5, 0xd7, 0x5d, 0xec, 0x11, 0x22, 0xed, 0xff, 0xf0, 0xf3, 0x52,
                                            0x04, 0x39, 0x1d, 0xee, 0xef, 0xe9, 0x12, 0x2b, 0x1c, 0x76, 0x48, 0x03,
                                            0xea, 0xe7, 0x08, 0x14, 0x23, 0x75, 0x30, 0x00, 0x0c, 0x07, 0xf7, 0x11,
                                            0x20, 0x51, 0x36, 0x11, 0x17, 0x0d, 0xfe, 0xed, 0x28, 0x31, 0xf2, 0x19,
                                            0x20, 0x21, 0x10, 0xcd, 0x09, 0x25, 0x9e, 0x07, 0x03, 0x0c, 0x0a, 0xa3,
                                            0xbe, 0xd5, 0xb2, 0xdb, 0xd8, 0xc2, 0xd0, 0xe8, 0x2a, 0xf0, 0x0a, 0xe9,
                                            0xf5, 0x08, 0xd6, 0xc0, 0xfc, 0x09, 0xf0, 0xe8, 0xe3, 0xf4, 0xff, 0x22,
                                            0xf0, 0x0f, 0xf7, 0xed, 0xd4, 0xe8, 0xde, 0x6b, 0x15, 0x30, 0x0e, 0xff,
                                            0x05, 0x11, 0xd4, 0x5d, 0x04, 0xf7, 0x0e, 0xf8, 0x0d, 0xed, 0xf1, 0x55,
                                            0x2a, 0xd1, 0x24, 0xfe, 0x26, 0x10, 0xfc, 0x5f, 0x18, 0xcc, 0x2a, 0x10,
                                            0x1e, 0x1d, 0x0f, 0x55, 0x27, 0x14, 0x4e, 0xf9, 0x0a, 0x13, 0xff, 0x75,
                                            0x48, 0x25, 0x54, 0x1b, 0x10, 0x25, 0xf0, 0x7e, 0x2c, 0x4b, 0x48, 0xfe,
                                            0x08, 0x04, 0x02, 0x3c, 0x0b, 0x5c, 0x16, 0x03, 0x00, 0xea, 0xf3, 0x21,
                                            0xb9, 0x18, 0xb2, 0xe3, 0xc5, 0xda, 0xc6, 0xec, 0xd5, 0xc8, 0xc9, 0xba,
                                            0xc0, 0xcb, 0xc8, 0xb0, 0xfc, 0xe7, 0xf5, 0xd2, 0xe0, 0xde, 0x05, 0xdd,
                                            0xc7, 0xd9, 0xf9, 0xdf, 0xe0, 0xe4, 0xfb, 0x0f, 0xdd, 0xc7, 0x29, 0xe4,
                                            0xe6, 0xdd, 0xf1, 0x43, 0x06, 0xb8, 0x54, 0xf2, 0xf7, 0xfc, 0x14, 0x46,
                                            0x26, 0xc2, 0x3a, 0xf2, 0x04, 0x13, 0x11, 0x28, 0x23, 0xc1, 0x48, 0x20,
                                            0x26, 0x1f, 0x02, 0x4f, 0x3b, 0xa5, 0x36, 0x4e, 0x49, 0x2f, 0x29, 0x65,
                                            0x2d, 0xd4, 0x42, 0x1f, 0x1c, 0x05, 0x0f, 0x7e, 0x24, 0x0e, 0x34, 0x0d,
                                            0x00, 0x1c, 0x15, 0x50, 0xfd, 0x17, 0x1a, 0xfd, 0xff, 0xf5, 0x01, 0x59,
                                            0xb5, 0xf0, 0x0f, 0xd9, 0xcf, 0xc9, 0xed, 0x46, 0xc9, 0xaf, 0x1e, 0xc2,
                                            0xe6, 0xc4, 0xb5, 0xfb, 0xf9, 0xe1, 0x0f, 0xfc, 0x08, 0x04, 0xee, 0xe7,
                                            0xe2, 0xef, 0xde, 0x06, 0x03, 0x19, 0x1f, 0xfc, 0xf1, 0xcf, 0x00, 0x18,
                                            0x0f, 0xff, 0x32, 0x05, 0x04, 0xbc, 0x0a, 0xe6, 0x09, 0x08, 0xf2, 0xf9,
                                            0xf2, 0xad, 0x2f, 0xef, 0xeb, 0xd9, 0xec, 0x1e, 0xff, 0xb9, 0x3b, 0xed,
                                            0xdc, 0xed, 0xdf, 0x40, 0x2b, 0xce, 0x60, 0x0f, 0x05, 0x0f, 0xe7, 0x5b,
                                            0x39, 0x9c, 0x3e, 0x1f, 0x03, 0x15, 0x15, 0x44, 0x1f, 0xb5, 0x20, 0x1a,
                                            0xf7, 0xf7, 0x13, 0x70, 0x03, 0xb4, 0x18, 0x15, 0xf7, 0xf2, 0x0c, 0x6a,
                                            0xea, 0xbe, 0x2f, 0xf2, 0x07, 0xea, 0xfa, 0xfe, 0xea, 0xb2, 0x0e, 0x01,
                                            0x09, 0x04, 0xef, 0xc6, 0x13, 0xbc, 0x35, 0xf4, 0xf8, 0x17, 0x0d, 0xbc,
                                            0x40, 0x05, 0x08, 0x39, 0x1d, 0x27, 0x2b, 0xd1, 0x12, 0xd7, 0xfc, 0x03,
                                            0x1f, 0x33, 0x0c, 0xff, 0xf9, 0xca, 0xc5, 0x17, 0x12, 0x2c, 0x2d, 0xee,
                                            0x08, 0xd8, 0xf2, 0xfa, 0x0d, 0x04, 0x28, 0xf0, 0xe6, 0xc5, 0xc5, 0xf7,
                                            0xdc, 0xeb, 0xf4, 0x19, 0xe8, 0xf7, 0x10, 0xe4, 0xdb, 0xc7, 0xf7, 0x2d,
                                            0xf8, 0xcf, 0x55, 0xf7, 0x09, 0xfd, 0xdf, 0x55, 0x0a, 0xcc, 0x24, 0x16,
                                            0xf5, 0x05, 0x05, 0x72, 0xeb, 0xa7, 0x65, 0xf4, 0xe3, 0x09, 0xfd, 0x4b,
                                            0xfd, 0x9b, 0x4c, 0x04, 0xff, 0x0c, 0x1a, 0xfc, 0xf4, 0xde, 0x35, 0x0d,
                                            0x16, 0xf6, 0x16, 0xb8, 0x06, 0xd5, 0x1c, 0x1b, 0xfc, 0x09, 0x0b, 0xcc,
                                            0x06, 0x09, 0x1f, 0x0c, 0xfe, 0xfe, 0x1f, 0xe8, 0xfe, 0xfe, 0xd8, 0x31,
                                            0x20, 0x24, 0xfd, 0x28, 0x35, 0xf0, 0x33, 0xe8, 0xf8, 0x3d, 0xed, 0x0a,
                                            0x19, 0xe7, 0x18, 0x27, 0x24, 0x1d, 0x0b, 0xc1, 0x10, 0xdb, 0xec, 0x09,
                                            0x01, 0x15, 0x0e, 0xc7, 0x04, 0xba, 0xe3, 0xf8, 0xf9, 0x03, 0x0f, 0xee,
                                            0xf4, 0x0b, 0xe4, 0xfa, 0xe9, 0xed, 0x03, 0xec, 0xfe, 0xc9, 0x21, 0xee,
                                            0xf7, 0xef, 0xf9, 0x23, 0xe5, 0xcb, 0xfd, 0xe2, 0x02, 0xdc, 0x00, 0x2e,
                                            0x08, 0x04, 0x47, 0x09, 0xf2, 0xf4, 0x07, 0x22, 0x1a, 0x26, 0x3c, 0xff,
                                            0xfb, 0x22, 0x20, 0x03, 0x0a, 0x02, 0x0c, 0x0e, 0x16, 0x0e, 0x0a, 0xe1,
                                            0x0f, 0xfd, 0x13, 0x07, 0x21, 0x12, 0x02, 0xd5, 0x08, 0x06, 0xfd, 0x21,
                                            0x0a, 0x1d, 0x12, 0x07, 0xe1, 0xdb, 0xc3, 0xf7, 0xf6, 0xe2, 0xee, 0xea,
                                            0x04, 0xd6, 0x05, 0x0e, 0xfb, 0x15, 0xfa, 0xf6, 0xf4, 0xd2, 0x09, 0x02,
                                            0x01, 0x02, 0xfd, 0x2a, 0xf2, 0xd1, 0x06, 0xee, 0xf2, 0x0e, 0xef, 0x18,
                                            0xfd, 0xbe, 0x01, 0xfc, 0xfa, 0xf4, 0x02, 0x05, 0xda, 0xb0, 0xf8, 0xf6,
                                            0xf7, 0x06, 0xf9, 0x3d, 0xfc, 0xdc, 0x24, 0xdd, 0xe3, 0xe1, 0xf1, 0x21,
                                            0x06, 0x07, 0x25, 0x04, 0xf0, 0xf4, 0x07, 0x3b, 0x1d, 0x44, 0x45, 0xfd,
                                            0x13, 0x0a, 0x13, 0x40, 0x09, 0x09, 0x35, 0x16, 0x18, 0xf1, 0xff, 0x0c,
                                            0x17, 0x0e, 0x1f, 0x1a, 0x08, 0x12, 0xfa, 0x0f, 0xfb, 0x17, 0xec, 0x02,
                                            0x1b, 0x1e, 0xfc, 0x01, 0x0c, 0xf4, 0x0d, 0x0d, 0x20, 0x0e, 0x19, 0xf2,
                                            0xd7, 0xe8, 0xf2, 0xfb, 0xef, 0xde, 0xff, 0xcc, 0x37, 0xf3, 0x1c, 0xf9,
                                            0x20, 0x19, 0xfa, 0xd7, 0xf6, 0xfb, 0xd2, 0x08, 0x0b, 0xfa, 0x20, 0xcc,
                                            0xef, 0xbf, 0x14, 0x09, 0x07, 0xf7, 0x11, 0x09, 0xea, 0xbf, 0x0d, 0x07,
                                            0x05, 0x11, 0x0a, 0x34, 0x12, 0xb1, 0x1e, 0xf2, 0x17, 0x0e, 0xfc, 0x31,
                                            0x0b, 0xcc, 0x13, 0x14, 0x11, 0x00, 0xe9, 0x41, 0x11, 0xeb, 0x21, 0x0d,
                                            0xf9, 0xf2, 0xea, 0x1f, 0x16, 0xfb, 0x4d, 0x03, 0x01, 0xf7, 0xee, 0x17,
                                            0x07, 0x08, 0x29, 0x00, 0xf8, 0xfc, 0xf4, 0x02, 0x1c, 0x16, 0x10, 0x0a,
                                            0x1d, 0x13, 0x1a, 0xf3, 0x32, 0xeb, 0x2b, 0x07, 0x0d, 0x1b, 0x0a, 0x00,
                                            0x28, 0x0b, 0x05, 0x3a, 0x26, 0x32, 0x18, 0xf3, 0x06, 0xef, 0xbf, 0x02,
                                            0xf9, 0x00, 0x04, 0xe7, 0x1d, 0xf4, 0x10, 0x02, 0x16, 0x0e, 0xf4, 0xf1,
                                            0xde, 0xd8, 0xe5, 0x24, 0x0c, 0x0c, 0xe9, 0xfb, 0x22, 0xcf, 0x06, 0xf0,
                                            0x01, 0x03, 0xeb, 0x13, 0x17, 0xe4, 0x1d, 0x1a, 0x0e, 0x1b, 0xed, 0x1d,
                                            0x1a, 0xe0, 0x0a, 0x24, 0x26, 0x16, 0xfb, 0x1e, 0x1d, 0xf9, 0xf7, 0x0e,
                                            0x2c, 0x2d, 0xe9, 0x21, 0x0c, 0xec, 0xd5, 0x0e, 0x0c, 0x1d, 0xd7, 0x22,
                                            0x25, 0x04, 0xc9, 0x07, 0x0f, 0x16, 0xca, 0x25, 0x13, 0x05, 0xf2, 0x0a,
                                            0x0d, 0x0b, 0x01, 0x16, 0x0f, 0xee, 0xfd, 0x03, 0x11, 0x16, 0x0a, 0x2b,
                                            0x0f, 0x03, 0xdd, 0x1d, 0x03, 0xf6, 0x00, 0x22, 0xec, 0xf4, 0xe9, 0xe6,
                                            0x00, 0x01, 0xd2, 0x1b, 0xe9, 0xf0, 0xaa, 0x09, 0x16, 0x14, 0xed, 0xe9,
                                            0x03, 0xf7, 0xe5, 0xf7, 0xff, 0xf9, 0x03, 0xe2, 0xf5, 0xfa, 0xda, 0xfd,
                                            0xfa, 0xef, 0xfd, 0xea, 0xe5, 0xf4, 0xef, 0xea, 0xf5, 0xec, 0xf8, 0xe6,
                                            0xdc, 0xfb, 0xdb, 0xe9, 0xea, 0xd9, 0xe3, 0xef, 0xd0, 0xfd, 0xea, 0xe9,
                                            0xe9, 0xe0, 0xf3, 0xf4, 0xd7, 0xf0, 0xf8, 0xf5, 0xf0, 0xe3, 0xe7, 0xfe,
                                            0xd6, 0xf9, 0xee, 0xf4, 0xe4, 0xec, 0xe3, 0x00, 0xd3, 0xf8, 0xf6, 0x0a,
                                            0x03, 0xf2, 0xff, 0x0e, 0xe1, 0xe9, 0x06, 0x0b, 0xf6, 0xe9, 0xf8, 0x05,
                                            0xd1, 0xea, 0xf4, 0xf7, 0xea, 0xdb, 0xf4, 0xfb, 0xd8, 0xe9, 0x15, 0xf3,
                                            0x01, 0xf1, 0xe4, 0x11, 0xe2, 0xef, 0x08, 0xec, 0xfb, 0xfc, 0xf5, 0xf6,
                                            0xee, 0xfb, 0xfa, 0xff, 0x07, 0xfc, 0x03, 0xe9, 0xf0, 0x00, 0xe9, 0x07,
                                            0x09, 0xf7, 0xfa, 0xea, 0xf2, 0xf8, 0xfd, 0x0c, 0xf9, 0x00, 0x00, 0xf0,
                                            0xfb, 0xf2, 0xf8, 0x04, 0x00, 0xff, 0x0a, 0x0a, 0xf3, 0xf5, 0x0a, 0x02,
                                            0x05, 0xfd, 0xfa, 0x1c, 0xee, 0xf1, 0x04, 0x03, 0xfe, 0xf9, 0xf2, 0x2c,
                                            0xf9, 0xc9, 0x04, 0x06, 0x0d, 0x0b, 0x0a, 0x2f, 0x00, 0xb5, 0x1e, 0x08,
                                            0xfa, 0x04, 0x09, 0x21, 0xed, 0xbc, 0x0f, 0xfd, 0x09, 0x10, 0xfe, 0x0b,
                                            0xfb, 0xc3, 0x08, 0x0a, 0x09, 0xfa, 0x01, 0x08, 0x04, 0xd0, 0x03, 0x05,
                                            0xf8, 0xf9, 0xfd, 0xea, 0xf3, 0xea, 0x03, 0x03, 0xff, 0xff, 0xf7, 0xdc,
                                            0x10, 0xf9, 0xfc, 0xfa, 0xfd, 0x03, 0xff, 0xf0, 0x0c, 0x05, 0xf3, 0x0a,
                                            0x0b, 0x17, 0x07, 0xef, 0xff, 0xee, 0xfd, 0x05, 0x0e, 0x0e, 0xfa, 0xf1,
                                            0x00, 0xfa, 0x07, 0xfe, 0x09, 0xfb, 0xff, 0xf8, 0x01, 0xec, 0x12, 0xfa,
                                            0x0d, 0x0c, 0xf5, 0x1e, 0x0f, 0xdf, 0x08, 0x01, 0x13, 0x10, 0x03, 0x20,
                                            0x29, 0xd5, 0x1e, 0x05, 0x0f, 0x0a, 0x0c, 0x3c, 0x0e, 0xd6, 0x1c, 0x0b,
                                            0x07, 0x13, 0x05, 0x49, 0x05, 0xbe, 0x21, 0x17, 0x08, 0x0e, 0x19, 0x47,
                                            0x12, 0xaa, 0x1b, 0x00, 0x03, 0xff, 0x0b, 0x2a, 0x07, 0xc4, 0x12, 0xfd,
                                            0xf9, 0x04, 0x05, 0x1e, 0xf1, 0xd3, 0x12, 0xfc, 0x05, 0xfc, 0x05, 0xfb,
                                            0xfa, 0xdd, 0x11, 0xff, 0x06, 0x02, 0x0e, 0xdc, 0xee, 0xf0, 0x07, 0xfd,
                                            0xf6, 0xff, 0xfa, 0xf9, 0xfa, 0x02, 0x05, 0xf2, 0xf4, 0xf4, 0xfc, 0x13,
                                            0x12, 0xfa, 0x08, 0x09, 0x00, 0x0e, 0x02, 0xf8, 0xf6, 0xf8, 0x11, 0x0c,
                                            0x03, 0x0a, 0x0e, 0x16, 0x0a, 0xda, 0x17, 0xfd, 0x01, 0x0b, 0x0e, 0x35,
                                            0x16, 0xfc, 0x19, 0x00, 0x08, 0x0a, 0xfa, 0x42, 0x13, 0xef, 0x1f, 0x09,
                                            0x0f, 0x08, 0xfc, 0x51, 0x18, 0x00, 0x2f, 0x07, 0x04, 0x09, 0x14, 0x65,
                                            0x1f, 0xf3, 0x24, 0x08, 0x08, 0x13, 0x14, 0x49, 0x0d, 0xf6, 0x24, 0x06,
                                            0x05, 0x0e, 0x12, 0x3f, 0x05, 0x0a, 0x1c, 0xf8, 0x05, 0x00, 0x11, 0x30,
                                            0xf5, 0xde, 0x0c, 0x01, 0xf8, 0xfc, 0x12, 0xdd, 0xfb, 0xe3, 0xfd, 0xfd,
                                            0x08, 0x0b, 0x02, 0xcc, 0x05, 0xed, 0x00, 0x06, 0xfc, 0xfb, 0x12, 0xc0,
                                            0xfd, 0xf9, 0xfb, 0x01, 0xf6, 0x02, 0xff, 0xe3, 0x00, 0xff, 0x08, 0x0b,
                                            0xfd, 0x07, 0xff, 0x0c, 0x0c, 0xff, 0x09, 0xf6, 0x07, 0x05, 0x0d, 0x46,
                                            0x01, 0xed, 0xff, 0xfc, 0x04, 0x07, 0xe7, 0x56, 0xff, 0xfd, 0x02, 0xf7,
                                            0x00, 0x05, 0xeb, 0x58, 0x11, 0xf4, 0xff, 0x0b, 0x00, 0x0f, 0xef, 0x4d,
                                            0x08, 0x02, 0x0a, 0x01, 0x0a, 0xf6, 0xff, 0x44, 0x03, 0x1c, 0x15, 0xfd,
                                            0xf8, 0x02, 0xf1, 0x2a, 0x07, 0x2f, 0xff, 0xf5, 0x03, 0x0a, 0x06, 0xf7,
                                            0x0c, 0x2a, 0x24, 0x11, 0x13, 0x0c, 0x1b, 0xe9, 0x09, 0x17, 0x0d, 0x00,
                                            0x11, 0x14, 0x13, 0xb7, 0x1a, 0x04, 0xf5, 0x12, 0x0d, 0x0e, 0x0c, 0xb8,
                                            0x03, 0x14, 0xcd, 0xfe, 0x01, 0xf8, 0x10, 0xbb, 0xf4, 0xfb, 0xd8, 0x07,
                                            0xf4, 0x08, 0xe9, 0x08, 0x11, 0xf1, 0x13, 0xfb, 0x08, 0x0f, 0x03, 0xf9,
                                            0x07, 0xfc, 0x12, 0x0d, 0x13, 0x17, 0x13, 0x33, 0xfb, 0xfd, 0x02, 0x04,
                                            0xf1, 0xff, 0xed, 0x3e, 0x01, 0x11, 0xf1, 0x05, 0xfc, 0xf5, 0xe8, 0x3d,
                                            0x03, 0x03, 0xf6, 0xfb, 0x0a, 0x00, 0xed, 0x41, 0xf8, 0x12, 0x02, 0x07,
                                            0xf0, 0xea, 0x0c, 0x3c, 0xfc, 0x11, 0x06, 0xe6, 0xec, 0xf7, 0xf4, 0x2e,
                                            0x19, 0x15, 0x1f, 0xf8, 0x0e, 0x03, 0xf7, 0xee, 0x0b, 0x25, 0x0f, 0x09,
                                            0x1a, 0x17, 0x0b, 0xe1, 0x1a, 0x27, 0xf0, 0x13, 0x0d, 0x04, 0x0e, 0xd4,
                                            0x16, 0x2f, 0xf2, 0x0a, 0x13, 0x01, 0x15, 0xe8, 0xfd, 0x28, 0xe0, 0x0d,
                                            0xff, 0xf8, 0xf6, 0xf8, 0xe7, 0xe7, 0xf7, 0x03, 0x0b, 0x0b, 0xf7, 0x1c,
                                            0x04, 0x00, 0x00, 0x05, 0x03, 0x14, 0xf7, 0x03, 0x10, 0xfb, 0x03, 0x1f,
                                            0x1b, 0x16, 0x1f, 0x27, 0xf2, 0x01, 0xf2, 0xff, 0x02, 0xf5, 0xe8, 0x2c,
                                            0xfa, 0xef, 0xfe, 0xf1, 0xf8, 0xfc, 0xf6, 0x37, 0xf4, 0xf8, 0x0d, 0xf8,
                                            0xf1, 0x03, 0xf9, 0x4b, 0xef, 0xfe, 0x06, 0xf3, 0xf7, 0xec, 0xf9, 0x59,
                                            0x00, 0xee, 0x17, 0xff, 0xfb, 0xf2, 0xe8, 0x2d, 0x02, 0x12, 0x06, 0x00,
                                            0x0f, 0x08, 0xf0, 0xea, 0x10, 0x19, 0xf6, 0x03, 0x17, 0x0d, 0xfb, 0xf6,
                                            0x21, 0x2b, 0xe6, 0x15, 0x1b, 0x1e, 0x17, 0xed, 0x16, 0x30, 0xe5, 0x0d,
                                            0x06, 0x0f, 0x01, 0x08, 0x0c, 0x1d, 0xea, 0xf9, 0xf9, 0xff, 0xeb, 0x2b,
                                            0x19, 0x00, 0xfd, 0x12, 0x0e, 0x09, 0x03, 0x26, 0x1c, 0xfd, 0x1c, 0x04,
                                            0x0c, 0x25, 0x02, 0xf0, 0x11, 0xfd, 0x02, 0x24, 0x14, 0x04, 0x0a, 0xfa,
                                            0x0a, 0x02, 0xe9, 0x05, 0xf7, 0xfa, 0xf0, 0xf5, 0xfd, 0xee, 0xe9, 0xf5,
                                            0xf2, 0x06, 0xf8, 0x2a, 0xff, 0xdd, 0x18, 0xf5, 0xfd, 0x0e, 0xf9, 0x52,
                                            0x17, 0xd5, 0x10, 0x09, 0x09, 0x0c, 0x02, 0x7f, 0x0d, 0xdb, 0x2a, 0xf4,
                                            0x01, 0xf2, 0xe8, 0x46, 0x03, 0xf6, 0xfd, 0x04, 0x05, 0x13, 0xef, 0x02,
                                            0x1f, 0x0c, 0xfd, 0x0b, 0x1d, 0x21, 0x02, 0x0b, 0x13, 0x20, 0xe7, 0x1c,
                                            0x21, 0x1a, 0x13, 0x08, 0x12, 0x15, 0xe0, 0x05, 0x13, 0x10, 0x08, 0x2a,
                                            0x01, 0x17, 0xf6, 0xf8, 0x01, 0x05, 0x00, 0x1a, 0xfa, 0xff, 0xf8, 0xf2,
                                            0x08, 0x0e, 0xff, 0x36, 0x1a, 0xf3, 0x0d, 0x00, 0x07, 0x14, 0x04, 0xfa,
                                            0x0e, 0xf9, 0xe6, 0x1f, 0x1c, 0x09, 0x18, 0xe8, 0x07, 0xfe, 0xfa, 0xf8,
                                            0x0f, 0x0d, 0xfa, 0x0c, 0x11, 0xf3, 0x1b, 0x00, 0x09, 0xfe, 0x00, 0x2e,
                                            0x21, 0xd3, 0x18, 0xf5, 0x0a, 0x06, 0xf8, 0x3d, 0x25, 0xe2, 0x14, 0x12,
                                            0x14, 0x04, 0xff, 0x41, 0x15, 0x01, 0xfd, 0x07, 0xf9, 0x0e, 0xf2, 0x26,
                                            0x08, 0x11, 0x1b, 0xf5, 0x09, 0xfe, 0xec, 0xec, 0x08, 0xf9, 0xf3, 0x0e,
                                            0x08, 0x02, 0xfb, 0x07, 0x0a, 0xfe, 0xdf, 0x06, 0x0d, 0x05, 0x08, 0x14,
                                            0xfe, 0x11, 0xf3, 0xf8, 0xf8, 0x05, 0xf6, 0x22, 0xf6, 0xff, 0xe4, 0xf1,
                                            0xec, 0xf3, 0xf8, 0x27, 0xfd, 0xf3, 0x07, 0x00, 0x01, 0x07, 0xea, 0x05,
                                            0x13, 0x04, 0x17, 0x00, 0x14, 0x13, 0xf2, 0xfa, 0x17, 0xe8, 0xf4, 0xfd,
                                            0x0b, 0x0d, 0xf8, 0xdd, 0x14, 0xff, 0x03, 0xfd, 0x04, 0xfd, 0x01, 0xe1,
                                            0x04, 0x0b, 0x0b, 0xfd, 0xfb, 0xf3, 0xec, 0xfb, 0x10, 0x1e, 0x0c, 0xec,
                                            0xff, 0xfc, 0xed, 0x1f, 0x0b, 0x31, 0x0c, 0xf1, 0xf4, 0xf0, 0xd9, 0x1c,
                                            0x0c, 0x22, 0xf5, 0xec, 0xf2, 0xfa, 0xf7, 0x0e, 0x04, 0x14, 0x00, 0x0a,
                                            0xfa, 0xf6, 0xf0, 0x04, 0xfa, 0x03, 0xed, 0x0a, 0x08, 0xf2, 0xfb, 0xe3,
                                            0xe9, 0xf9, 0xe3, 0xfb, 0xff, 0x05, 0xf1, 0x02, 0xfa, 0x01, 0xf2, 0xfe,
                                            0xff, 0xf7, 0xf8, 0x20, 0xdf, 0xe1, 0xfc, 0xf2, 0xeb, 0xe6, 0xf9, 0x1a,
                                            0x11, 0xed, 0x11, 0xf6, 0xf4, 0x00, 0x03, 0xfa, 0x05, 0xf8, 0x01, 0x0b,
                                            0x08, 0x12, 0xf9, 0xf4, 0xff, 0xfa, 0xfb, 0x04, 0xf7, 0x06, 0xf3, 0xfe,
                                            0xe5, 0x0d, 0xf0, 0x0e, 0x02, 0x05, 0xf7, 0x0b, 0xee, 0xf8, 0x07, 0xf8,
                                            0xf6, 0xf7, 0xfe, 0x06, 0xef, 0x0d, 0xeb, 0xf4, 0xef, 0xf2, 0xeb, 0xfe,
                                            0x01, 0x17, 0x06, 0xec, 0xee, 0xf2, 0xf7, 0xfa, 0xfe, 0x2a, 0xfc, 0xf7,
                                            0xfe, 0xfd, 0xf6, 0xf1, 0xed, 0x0d, 0x03, 0x0d, 0xf7, 0xf1, 0x03, 0xc9,
                                            0xe8, 0xe7, 0xf9, 0xff, 0x03, 0xf4, 0x0b, 0xc9, 0xf7, 0xe1, 0x10, 0xfa,
                                            0xf5, 0xfc, 0x08, 0xf4, 0xed, 0xeb, 0x02, 0xeb, 0xfa, 0xfa, 0x0e, 0x00,
                                            0xf8, 0xed, 0x2a, 0xfa, 0x04, 0xfa, 0xf2, 0x05, 0x0a, 0x01, 0x13, 0x0f,
                                            0xfc, 0x05, 0xff, 0x01, 0x04, 0xf3, 0x02, 0xfc, 0x05, 0x0b, 0xfa, 0xea,
                                            0xf8, 0xf2, 0xe5, 0x0e, 0x08, 0xfb, 0xfc, 0xdd, 0x0d, 0xef, 0x02, 0xf4,
                                            0x01, 0x10, 0xfc, 0xed, 0xf8, 0x16, 0xec, 0xff, 0xfa, 0x05, 0xe9, 0xf2,
                                            0x06, 0xf5, 0xf6, 0x06, 0xf9, 0xf6, 0xe2, 0xe5, 0xf7, 0x0c, 0xe8, 0x03,
                                            0x0c, 0xfa, 0xe7, 0xdb, 0xf2, 0x0f, 0xd1, 0xf9, 0xfb, 0xfa, 0x01, 0xde,
                                            0xf5, 0xfe, 0xf3, 0x07, 0x04, 0x04, 0x13, 0xe5, 0xee, 0x0f, 0x0b, 0x0c,
                                            0x05, 0xf8, 0x27, 0xf6, 0xef, 0xee, 0x05, 0xfe, 0x07, 0xfa, 0x1c, 0xf0,
                                            0x01, 0xed, 0x1a, 0xff, 0xfa, 0xfb, 0x05, 0xf3, 0x11, 0x08, 0x11, 0x02,
                                            0x0a, 0x0c, 0x08, 0x12, 0xf9, 0x03, 0xe8, 0x00, 0xfe, 0xfb, 0x12, 0xef,
                                            0x00, 0xf0, 0x04, 0xf7, 0xfa, 0xfa, 0xf7, 0xf2, 0x20, 0xf5, 0x11, 0x07,
                                            0x1d, 0x2c, 0xfc, 0x06, 0x1b, 0xfb, 0x09, 0x2c, 0x24, 0x34, 0x22, 0x0a,
                                            0x11, 0x1b, 0x01, 0x1f, 0x14, 0x25, 0x2f, 0xf5, 0x13, 0x10, 0x02, 0x0b,
                                            0x0c, 0x1c, 0x12, 0xe7, 0x07, 0x13, 0xf7, 0x1f, 0x1d, 0x10, 0x2b, 0xeb,
                                            0xff, 0x0c, 0xfd, 0x04, 0x10, 0x05, 0x28, 0xef, 0x0b, 0x02, 0x15, 0x0a,
                                            0x0b, 0x07, 0x20, 0xec, 0xf9, 0x03, 0x0c, 0x08, 0x11, 0x06, 0x1c, 0xed,
                                            0x15, 0xfd, 0x1e, 0x04, 0x0c, 0x11, 0x0f, 0xeb, 0x10, 0x0b, 0x06, 0x21,
                                            0x0f, 0x0f, 0x29, 0x07, 0xf4, 0xf2, 0x0d, 0xfb, 0xf6, 0xf4, 0x01, 0x0c,
                                            0xee, 0xec, 0xf1, 0x02, 0x09, 0xe9, 0xf8, 0xfd, 0xe1, 0xc8, 0x4d, 0x21,
                                            0xbb, 0xe0, 0x06, 0x17, 0xe1, 0xfc, 0x3a, 0xb4, 0xb6, 0xc6, 0xfe, 0xa9,
                                            0x1e, 0xb0, 0xeb, 0x1c, 0x07, 0x3d, 0xfa, 0xd9, 0x05, 0x8e, 0x11, 0xea,
                                            0xf4, 0x4b, 0x40, 0xbc, 0x3f, 0x08, 0xef, 0x32, 0x2d, 0x26, 0xfa, 0xc3,
                                            0x15, 0x93, 0xf1, 0xe8, 0xdd, 0xa9, 0x43, 0x8e, 0xc3, 0x21, 0xef, 0xf3,
                                            0x3c, 0xb2, 0xf0, 0xe5, 0x30, 0xa6, 0x16, 0x3b, 0x29, 0x2b, 0xb9, 0xf9,
                                            0x1d, 0x96, 0x07, 0x1b, 0xbd, 0xe6, 0x35, 0x15, 0xda, 0xda, 0xb1, 0xce,
                                            0x24, 0xdc, 0xec, 0xb0, 0xbd, 0xbc, 0x37, 0xf7, 0xcf, 0xe9, 0xc2, 0xb2,
                                            0xea, 0x9e, 0xc7, 0x43, 0x21, 0xea, 0x1f, 0xfa, 0x0e, 0xc0, 0x28, 0xcf,
                                            0x2c, 0x10, 0x10, 0xb2, 0x1f, 0xf5, 0x1d, 0xda, 0xca, 0x51, 0x0b, 0x2b,
                                            0x0b, 0xe8, 0xf0, 0xe5, 0xd6, 0xcb, 0x40, 0x07, 0xf1, 0xcb, 0x02, 0x00,
                                            0xca, 0x4e, 0xfb, 0x05, 0xee, 0xd0, 0x31, 0xd6, 0x4e, 0x3d, 0x30, 0xd7,
                                            0xbd, 0x28, 0xe1, 0x1c, 0x3a, 0x2a, 0xf9, 0x04, 0xe4, 0xce, 0x24, 0xbb,
                                            0x02, 0x11, 0xd4, 0xd0, 0xe0, 0x1c, 0x49, 0x26, 0xbc, 0x07, 0xf8, 0x14,
                                            0xfc, 0xd9, 0x21, 0xb4, 0x29, 0x05, 0xbd, 0xf7, 0xaf, 0xcb, 0x2f, 0x8c,
                                            0x05, 0xf6, 0xf2, 0xc4, 0xfe, 0x93, 0xde, 0x3c, 0xda, 0x07, 0xde, 0x11,
                                            0x4b, 0x98, 0xdd, 0xea, 0x16, 0xf0, 0x18, 0x9f, 0x35, 0xaa, 0x31, 0x0e,
                                            0xb1, 0xd0, 0xf2, 0x0f, 0x47, 0x2f, 0x4f, 0x20, 0xfc, 0xb2, 0x41, 0x22,
                                            0xf3, 0xa8, 0x1a, 0xb9, 0x1f, 0x24, 0x21, 0x2f, 0x35, 0xa5, 0x37, 0xc9,
                                            0x27, 0x19, 0xe5, 0xb0, 0xde, 0xe2, 0x4d, 0xc4, 0x4c, 0x06, 0xb6, 0xf0,
                                            0xbb, 0xf3, 0xca, 0x39, 0x35, 0xe0, 0xd1, 0x15, 0x2a, 0xec, 0x09, 0x9d,
                                            0x01, 0xc3, 0xd7, 0xe1, 0x96, 0xbb, 0xa1, 0x09, 0xb7, 0x02, 0xd4, 0xe6,
                                            0xe8, 0xc5, 0xc8, 0x0b, 0xd0, 0xb5, 0x05, 0xb2, 0x83, 0xdb, 0xf1, 0x9e,
                                            0x9b, 0xf7, 0x9f, 0xeb, 0x93, 0x25, 0xf2, 0xe3, 0xd6, 0xf6, 0xf4, 0x0e,
                                            0xee, 0xfb, 0xa9, 0xd9, 0x8d, 0xfd, 0xce, 0xdb, 0x1f, 0xa6, 0xc9, 0x39,
                                            0xe2, 0x08, 0xbe, 0xa5, 0xfc, 0xf7, 0xd2, 0x11, 0xd7, 0xf6, 0xac, 0xf2,
                                            0xc9, 0xce, 0x1d, 0x05, 0xf8, 0xd9, 0x11, 0x2d, 0x36, 0x0c, 0x44, 0xc5,
                                            0xea, 0xb6, 0xe8, 0x9e, 0xde, 0xad, 0xb8, 0x39, 0x44, 0x15, 0x0c, 0x2e,
                                            0xd3, 0x29, 0xd9, 0xb5, 0x28, 0x41, 0x49, 0x00, 0xf7, 0xc7, 0xa9, 0x03,
                                            0x96, 0x3f, 0xd8, 0x90, 0xac, 0xe5, 0xf8, 0x2e, 0xb1, 0x9e, 0xb6, 0xf2,
                                            0xbd, 0xa1, 0xf4, 0xae, 0x08, 0xb8, 0xde, 0x96, 0x01, 0xd7, 0x16, 0xb0,
                                            0x92, 0xa5, 0x66, 0xd1, 0xe9, 0x44, 0xfa, 0x95, 0xff, 0xfe, 0x59, 0xc1,
                                            0xd3, 0x0c, 0x21, 0xd2, 0x9d, 0x92, 0xc5, 0x20, 0x34, 0xf8, 0xdf, 0xfa,
                                            0xc4, 0x22, 0xa8, 0xd5, 0x20, 0xe3, 0xdb, 0xc8, 0xe2, 0xe7, 0x0d, 0xb7,
                                            0xbf, 0x2b, 0xd8, 0x3f, 0xc5, 0xd3, 0xad, 0xb9, 0x25, 0xa0, 0xc5, 0x05,
                                            0xe4, 0xe6, 0x27, 0x23, 0x44, 0x02, 0x00, 0xee, 0xc8, 0xd5, 0x28, 0xa2,
                                            0x07, 0xbb, 0x26, 0xc5, 0xfa, 0x07, 0xe4, 0xe3, 0x19, 0x00, 0xf4, 0xba,
                                            0xd8, 0xf9, 0xce, 0x0c, 0x16, 0x13, 0xb8, 0xcf, 0x22, 0xc7, 0x27, 0x30,
                                            0x16, 0xd1, 0xc9, 0x2a, 0x45, 0xd3, 0x06, 0xb1, 0xe4, 0x06, 0x44, 0xec,
                                            0x13, 0x3c, 0x16, 0xeb, 0x5e, 0x37, 0x33, 0x5a, 0xa1, 0xd2, 0x66, 0x8d,
                                            0xf6, 0xee, 0x93, 0x8e, 0xaf, 0x8c, 0xe4, 0xcf, 0x19, 0x2a, 0xfd, 0xa7,
                                            0xdb, 0x99, 0xc2, 0xf1, 0xe7, 0xcd, 0x2d, 0xb3, 0x4a, 0xce, 0x0c, 0xb2,
                                            0xbc, 0x14, 0x4f, 0xb2, 0xdb, 0x15, 0xe5, 0xee, 0x0a, 0x9a, 0x40, 0xe4,
                                            0x29, 0xbc, 0x48, 0x9f, 0x44, 0xee, 0xcb, 0xdd, 0xda, 0xb4, 0xe0, 0x29,
                                            0xc4, 0xdb, 0xd3, 0x29, 0x0d, 0xf9, 0xda, 0x11, 0x12, 0x8d, 0x45, 0x09,
                                            0xd1, 0xe1, 0xbe, 0xfc, 0xe2, 0xe4, 0x09, 0x04, 0x0f, 0xce, 0xe0, 0xc8,
                                            0xc7, 0xd3, 0xfc, 0xf5, 0x12, 0xe3, 0x01, 0x9e, 0x1d, 0x17, 0xcc, 0xdb,
                                            0xb8, 0xbe, 0x15, 0x9e, 0x10, 0x20, 0x03, 0xd9, 0xe5, 0x66, 0x24, 0x1d,
                                            0x15, 0x33, 0xf9, 0xd7, 0xe3, 0xa3, 0x62, 0x03, 0x92, 0xb1, 0x03, 0xa5,
                                            0x99, 0xaa, 0xbb, 0x1c, 0x8a, 0xfd, 0x31, 0x0f, 0x18, 0xff, 0x8c, 0x15,
                                            0x16, 0xce, 0xcb, 0x15, 0xb5, 0x12, 0xd2, 0xdd, 0xcf, 0xec, 0xf7, 0x3f,
                                            0xe8, 0xf5, 0xec, 0xfe, 0x2c, 0x0c, 0xea, 0x26, 0xec, 0x30, 0x16, 0x9e,
                                            0x49, 0x0b, 0xdc, 0x4d, 0xb3, 0xe3, 0x20, 0x19, 0xce, 0xd4, 0xfd, 0xe5,
                                            0x30, 0x3a, 0xc2, 0x0a, 0x37, 0xa6, 0xdc, 0x10, 0x22, 0x33, 0x02, 0xc5,
                                            0x0d, 0xc8, 0x23, 0xd1, 0x14, 0x4b, 0x22, 0x1e, 0x1b, 0xb3, 0x4d, 0xaa,
                                            0xb6, 0xde, 0xdc, 0xae, 0x16, 0x12, 0xdc, 0xdb, 0x33, 0x31, 0xff, 0x9b,
                                            0x37, 0xdb, 0x3e, 0xc8, 0xbd, 0xae, 0xf4, 0xd6, 0x98, 0x54, 0xeb, 0xdf,
                                            0x18, 0x22, 0x46, 0xf9, 0xb3, 0xc5, 0x07, 0xcd, 0x13, 0x16, 0x28, 0x01,
                                            0x1e, 0xbe, 0xbe, 0xc6, 0x2f, 0xfd, 0xa0, 0x2f, 0x01, 0xcc, 0xd8, 0xc1,
                                            0xe3, 0xe0, 0xb7, 0x08, 0x17, 0xf6, 0x1a, 0x48, 0xd2, 0xf7, 0xd2, 0xc4,
                                            0xe7, 0x0f, 0xbc, 0xc7, 0x26, 0xc6, 0x2c, 0x17, 0xe6, 0x0e, 0x19, 0xb8,
                                            0xce, 0xca, 0x23, 0xf2, 0xd6, 0x91, 0xba, 0xca, 0xdc, 0xb6, 0xc9, 0x27,
                                            0x3e, 0xe5, 0x14, 0x21, 0xc8, 0x0e, 0x22, 0x26, 0x09, 0xd6, 0x18, 0x36,
                                            0x1a, 0x26, 0xf1, 0xb1, 0x38, 0x9f, 0xc4, 0xb1, 0xb8, 0xe8, 0xba, 0xec,
                                            0xac, 0x9e, 0xa9, 0x42, 0x05, 0xd8, 0xe9, 0xb7, 0x24, 0xb6, 0xe9, 0xb1,
                                            0x29, 0xd0, 0x3b, 0xdf, 0x0f, 0x22, 0xd4, 0xa9, 0x0e, 0xf3, 0x19, 0xf2,
                                            0xf9, 0x19, 0xd5, 0xb0, 0x8b, 0xdf, 0x18, 0xd6, 0xbf, 0x97, 0xed, 0x35,
                                            0xba, 0x29, 0xad, 0x01, 0xa7, 0xa8, 0xef, 0xb4, 0x37, 0xf2, 0x2b, 0x1f,
                                            0xb3, 0x16, 0x14, 0x3e, 0xbd, 0xf8, 0x0c, 0xdf, 0xcd, 0xee, 0xb4, 0xc7,
                                            0xf7, 0xd7, 0x3b, 0xd3, 0x0d, 0x1f, 0x4f, 0x1f, 0x2a, 0x0d, 0x0c, 0x10,
                                            0xdd, 0xd2, 0xe5, 0x08, 0x00, 0xae, 0x39, 0xeb, 0x24, 0x1a, 0x33, 0xdd,
                                            0x1c, 0xb9, 0xd5, 0xa4, 0x1e, 0xdc, 0x42, 0x3c, 0xa8, 0x0c, 0xce, 0xf2,
                                            0x3b, 0xc0, 0xb7, 0x3b, 0x40, 0x21, 0x02, 0xc1, 0xe4, 0xec, 0xc1, 0x0c,
                                            0x3d, 0xda, 0xf1, 0xd4, 0xbe, 0xb3, 0x12, 0xcc, 0x88, 0x9a, 0x33, 0xe2,
                                            0x01, 0xbd, 0x0e, 0x1b, 0x18, 0xb8, 0x1c, 0xba, 0x17, 0x0c, 0x51, 0xe4,
                                            0xd7, 0xda, 0xa3, 0x25, 0xb4, 0x8d, 0x26, 0xdd, 0xc9, 0x10, 0xc2, 0x94,
                                            0x01, 0x2d, 0xa9, 0x15, 0xc3, 0xfc, 0x3a, 0xd1, 0xe8, 0x1f, 0xdc, 0xeb,
                                            0xd5, 0xf1, 0x35, 0x9e, 0xdc, 0xc7, 0x49, 0xd3, 0xcf, 0x4e, 0x08, 0xab,
                                            0x20, 0x15, 0x24, 0x24, 0x2c, 0x40, 0xfd, 0xeb, 0x05, 0x96, 0xb5, 0xff,
                                            0xab, 0x21, 0x10, 0x23, 0x1e, 0xb7, 0xdd, 0x47, 0x1f, 0x19, 0xee, 0xfb,
                                            0x14, 0xb6, 0xf5, 0xd0, 0xca, 0xf9, 0x15, 0xd5, 0xbf, 0xc4, 0xb4, 0x28,
                                            0xad, 0x27, 0xaa, 0xde, 0x2b, 0xe4, 0x08, 0x9e, 0xb6, 0x00, 0xc1, 0xa4,
                                            0x98, 0x28, 0xb3, 0xb8, 0x0b, 0xb4, 0x1c, 0x1e, 0xff, 0xb5, 0xbe, 0x9d,
                                            0xea, 0xe9, 0xd2, 0xa2, 0xa7, 0xe2, 0x81, 0xed, 0xeb, 0xee, 0xef, 0xeb,
                                            0xe4, 0xb9, 0xba, 0x2f, 0x10, 0x19, 0xc7, 0xab, 0xfe, 0xa0, 0x1a, 0xe4,
                                            0xd8, 0xe7, 0xd0, 0x97, 0xb5, 0xdb, 0xf4, 0xd8, 0x08, 0xa9, 0xc7, 0x04,
                                            0xea, 0x93, 0x08, 0xfa, 0xbd, 0x26, 0x3c, 0x9c, 0x1c, 0x21, 0x46, 0x05,
                                            0x25, 0xe4, 0xed, 0xcc, 0xf7, 0xd5, 0x25, 0x00, 0x33, 0x4e, 0x3b, 0xd4,
                                            0x3d, 0xf5, 0xd2, 0xc7, 0x14, 0x18, 0xb4, 0xf9, 0xae, 0xb0, 0x1a, 0x1a,
                                            0x03, 0x4a, 0xf1, 0x28, 0xce, 0x16, 0xc1, 0x41, 0x0b, 0x1c, 0xd8, 0x26,
                                            0xf4, 0x95, 0xd1, 0xa9, 0x94, 0xe0, 0xce, 0x9d, 0xe3, 0xf1, 0xbf, 0x1e,
                                            0x9d, 0x0e, 0x1c, 0x93, 0x94, 0xcf, 0xc7, 0x95, 0xee, 0xce, 0xb9, 0x38,
                                            0xa5, 0xe2, 0xe5, 0xea, 0xd2, 0xa7, 0xad, 0xd5, 0x2d, 0xbd, 0xb1, 0x1b,
                                            0x22, 0xcb, 0xb3, 0x1b, 0x2c, 0x99, 0xe9, 0x0c, 0xdc, 0xb7, 0xcd, 0xeb,
                                            0xd9, 0xc3, 0xf9, 0x4a, 0x18, 0xbe, 0x24, 0xc9, 0xda, 0x08, 0x4d, 0x35,
                                            0xe5, 0xb5, 0x41, 0x1c, 0x16, 0x1a, 0x17, 0xf1, 0xe3, 0xfb, 0xe7, 0x08,
                                            0x47, 0x9f, 0xc2, 0xfe, 0xf4, 0xb9, 0xd6, 0x93, 0xc4, 0xb9, 0xb2, 0xf1,
                                            0xd2, 0x39, 0x37, 0xba, 0x3d, 0xa7, 0x26, 0xfd, 0xed, 0xf8, 0x03, 0x18,
                                            0xd8, 0x03, 0xd7, 0x49, 0xd0, 0x00, 0xd6, 0xd5, 0xc2, 0xef, 0x90, 0x1d,
                                            0xf3, 0xc0, 0x93, 0x16, 0x18, 0x06, 0x06, 0xc3, 0x85, 0xb3, 0x9f, 0xc0,
                                            0x20, 0x85, 0xe1, 0x12, 0xf8, 0x25, 0x23, 0xad, 0xd0, 0xb3, 0xd0, 0x0a,
                                            0xcf, 0x09, 0x29, 0x1b, 0xbd, 0xb2, 0xfc, 0x3a, 0x17, 0x06, 0xd8, 0xe5,
                                            0xc5, 0x1b, 0xeb, 0xbc, 0x0f, 0xee, 0x2d, 0x17, 0xe5, 0xa7, 0xd7, 0xaf,
                                            0x23, 0xbc, 0x10, 0xbe, 0xcf, 0xa1, 0xda, 0xbd, 0xda, 0x48, 0xb9, 0x29,
                                            0x07, 0xf7, 0xb0, 0xcb, 0x13, 0xea, 0x1b, 0xbe, 0x3d, 0xf8, 0x13, 0xf7,
                                            0x31, 0xc2, 0x32, 0x19, 0x20, 0xc9, 0x1f, 0x1e, 0xfd, 0xdd, 0xcf, 0x12,
                                            0xd2, 0xd3, 0xc0, 0x11, 0xfa, 0xd2, 0xeb, 0xb4, 0xc9, 0xed, 0x19, 0xbf,
                                            0xf1, 0x19, 0xc5, 0xfc, 0x08, 0xc2, 0x13, 0xc9, 0xe4, 0xc0, 0x4c, 0xa3,
                                            0xe9, 0xcb, 0xe9, 0x00, 0x00, 0xdd, 0x1d, 0x12, 0xf9, 0x0f, 0xfb, 0xec,
                                            0xdf, 0xe6, 0x0a, 0xb8, 0xc6, 0x0c, 0x41, 0x23, 0xf1, 0xc9, 0xbb, 0x9c,
                                            0x12, 0x1a, 0xb2, 0x3e, 0x1d, 0x4d, 0xaf, 0x93, 0x02, 0xd4, 0x43, 0x29,
                                            0x3a, 0x23, 0xb1, 0x2f, 0xd1, 0xc0, 0x2f, 0xcf, 0xad, 0x09, 0x3f, 0xa5,
                                            0x28, 0x9f, 0x42, 0x24, 0x0b, 0x4c, 0x3e, 0x28, 0x30, 0xd3, 0xba, 0xb6,
                                            0x25, 0xd0, 0x0f, 0x28, 0x03, 0x19, 0x58, 0x11, 0xfb, 0x0c, 0x01, 0x38,
                                            0xfe, 0x1e, 0x21, 0xff, 0x06, 0xfe, 0x0e, 0x27, 0xfa, 0x02, 0x11, 0xf7,
                                            0xf3, 0xd5, 0x06, 0xff, 0xe7, 0x0c, 0xd1, 0xd6, 0xd0, 0xbd, 0xf4, 0xd3,
                                            0xd9, 0x0f, 0xd6, 0xc6, 0xcb, 0xc9, 0xda, 0xd5, 0xde, 0x04, 0xdc, 0xc7,
                                            0xdb, 0xc8, 0xc9, 0xdc, 0xcc, 0x19, 0xe5, 0xc5, 0xcd, 0xa7, 0xcb, 0xcb,
                                            0xbc, 0x1c, 0xd3, 0xdf, 0xd2, 0xcf, 0xd1, 0xe1, 0xc8, 0xfa, 0x01, 0xde,
                                            0xe9, 0xd1, 0xc8, 0xf2, 0xda, 0x03, 0x04, 0xe2, 0xf1, 0xe2, 0xdc, 0xe7,
                                            0xde, 0xff, 0xe8, 0xd7, 0xe0, 0xd1, 0xf8, 0xf0, 0xe9, 0x06, 0xf4, 0xe3,
                                            0xe4, 0xde, 0xfc, 0xf6, 0xdc, 0x10, 0xf2, 0xf5, 0xfb, 0x02, 0x09, 0x1f,
                                            0x05, 0x1b, 0x32, 0xff, 0x00, 0xf1, 0x17, 0x2e, 0xf5, 0x12, 0x32, 0x1a,
                                            0x1d, 0xfc, 0xf6, 0x12, 0xd7, 0x17, 0x1b, 0x08, 0xf7, 0xf1, 0x17, 0x2d,
                                            0xc6, 0x06, 0x13, 0xf1, 0xf4, 0xdb, 0xf1, 0xfc, 0xe3, 0xf9, 0x1c, 0xea,
                                            0xe5, 0xee, 0xec, 0xff, 0xe9, 0x15, 0x08, 0xe6, 0xfa, 0xe9, 0x06, 0x0f,
                                            0x09, 0x0c, 0x19, 0xec, 0x01, 0xed, 0xf2, 0x08, 0x0b, 0xeb, 0xfe, 0xf0,
                                            0xf2, 0xf2, 0x07, 0xfc, 0xfc, 0x17, 0xf4, 0xdc, 0xee, 0xf0, 0xfc, 0xee,
                                            0x00, 0x11, 0xe5, 0xef, 0xed, 0x01, 0xf2, 0xfb, 0x00, 0x0e, 0x02, 0xf2,
                                            0x04, 0x01, 0xf7, 0xfb, 0xec, 0x11, 0x0e, 0xe4, 0xee, 0xee, 0xe8, 0x10,
                                            0x0a, 0x0e, 0xf2, 0xf0, 0x00, 0xe9, 0xf1, 0x06, 0x0c, 0x1e, 0x38, 0x1f,
                                            0x0b, 0x06, 0x1a, 0x36, 0x00, 0x1e, 0x39, 0xf2, 0x00, 0xf8, 0x07, 0x16,
                                            0xef, 0xf9, 0x1f, 0x24, 0x10, 0x0d, 0x12, 0x1b, 0xf4, 0xfc, 0x39, 0x11,
                                            0xf2, 0x0e, 0x0d, 0x1e, 0xfc, 0x12, 0x37, 0x06, 0x02, 0xf0, 0x10, 0x25,
                                            0xfe, 0x12, 0x2a, 0xfd, 0x05, 0xf7, 0x26, 0x0c, 0xf3, 0x3e, 0xf5, 0xfc,
                                            0xf5, 0xe1, 0x0f, 0xd3, 0xd0, 0x50, 0xf3, 0xf6, 0xfa, 0xf0, 0xec, 0xd4,
                                            0xe7, 0x5a, 0x04, 0xf2, 0x0a, 0xf8, 0x10, 0xf8, 0x0f, 0x25, 0x26, 0xff,
                                            0x10, 0xfd, 0x0b, 0x1f, 0x00, 0x2a, 0x10, 0x08, 0x0d, 0xf7, 0xf5, 0x32,
                                            0x1a, 0x00, 0x28, 0xf4, 0xfc, 0xfd, 0x05, 0x25, 0xed, 0xfe, 0x03, 0xff,
                                            0x01, 0x00, 0xed, 0x09, 0x22, 0x15, 0x16, 0x1b, 0x2b, 0x1a, 0x18, 0x2f,
                                            0x03, 0x02, 0x0c, 0x11, 0x24, 0x14, 0x23, 0x25, 0x02, 0xea, 0x39, 0x29,
                                            0x26, 0x10, 0x31, 0x25, 0xf7, 0xde, 0x51, 0x0f, 0x0a, 0x1e, 0x5f, 0x05,
                                            0xf2, 0x03, 0x2a, 0x0c, 0x10, 0xff, 0x53, 0x08, 0xfb, 0xde, 0x04, 0x0c,
                                            0x11, 0xf2, 0x3b, 0xea, 0xd1, 0x1d, 0xca, 0x05, 0xf5, 0xf8, 0x0f, 0xce,
                                            0xd6, 0x21, 0xd2, 0x0d, 0x05, 0xfb, 0x0a, 0xb6, 0x13, 0x3a, 0x0c, 0x10,
                                            0x14, 0x16, 0x0c, 0x97, 0x13, 0x62, 0x12, 0x14, 0x12, 0x12, 0x14, 0xcc,
                                            0x29, 0x17, 0x30, 0x15, 0x20, 0x07, 0x08, 0xfc, 0x1a, 0x0e, 0x26, 0x17,
                                            0x13, 0x25, 0x0e, 0xf9, 0x21, 0x06, 0x12, 0x12, 0x17, 0x24, 0x10, 0xfa,
                                            0x18, 0x01, 0x0e, 0x20, 0x1c, 0x1b, 0x19, 0x40, 0x08, 0x0c, 0x04, 0x26,
                                            0x17, 0x2c, 0xfc, 0x06, 0x0e, 0xda, 0x18, 0x0c, 0x14, 0x11, 0x29, 0x02,
                                            0x18, 0xad, 0x1b, 0x23, 0x14, 0x13, 0x46, 0x21, 0x03, 0xbf, 0x34, 0x24,
                                            0x01, 0x1a, 0x3f, 0xff, 0x00, 0xd8, 0x08, 0x0d, 0x00, 0x03, 0x37, 0xda,
                                            0xeb, 0xf8, 0xd1, 0x16, 0x0a, 0x19, 0x15, 0xe6, 0x14, 0x05, 0xe8, 0x24,
                                            0x1e, 0x25, 0x1c, 0xc4, 0x24, 0x54, 0xc2, 0x1b, 0x1f, 0x1a, 0x24, 0x8c,
                                            0x2a, 0x67, 0xe2, 0x1a, 0x25, 0x1a, 0x18, 0xbe, 0x1e, 0x3c, 0x11, 0x17,
                                            0x20, 0x23, 0x10, 0xf0, 0x29, 0x21, 0x0e, 0x11, 0x13, 0x0e, 0x0d, 0xeb,
                                            0x1e, 0x26, 0xe7, 0x2e, 0x15, 0x30, 0x0d, 0x0c, 0x0d, 0x0d, 0xfb, 0x20,
                                            0x2f, 0x2f, 0x09, 0x2a, 0x13, 0xfd, 0x06, 0x12, 0x29, 0x18, 0x17, 0x14,
                                            0x17, 0xd2, 0x06, 0x1a, 0x08, 0x22, 0x0f, 0x08, 0x14, 0xae, 0x1f, 0x10,
                                            0x1e, 0x13, 0x21, 0xe7, 0x06, 0xd8, 0x08, 0x09, 0x15, 0xfb, 0x1b, 0xcb,
                                            0xfe, 0xef, 0xff, 0x10, 0x0d, 0x03, 0x05, 0xca, 0x10, 0x0f, 0xee, 0x15,
                                            0x11, 0x1b, 0x19, 0x9d, 0x0a, 0x19, 0xca, 0x0a, 0x15, 0x24, 0x2a, 0x88,
                                            0x1e, 0x42, 0xd0, 0x0f, 0x18, 0x13, 0x1a, 0xf9, 0x22, 0x61, 0xf9, 0x16,
                                            0x00, 0x01, 0x0d, 0x22, 0x23, 0x3d, 0x1e, 0x02, 0x03, 0x07, 0x00, 0x29,
                                            0x1d, 0x1d, 0xe7, 0x14, 0xff, 0x10, 0x02, 0xf0, 0xe8, 0x12, 0xd1, 0xe5,
                                            0xef, 0xf0, 0xef, 0xee, 0x33, 0x19, 0x2f, 0x1b, 0x23, 0x30, 0x1b, 0x35,
                                            0x15, 0xff, 0x11, 0x22, 0x0c, 0x09, 0xfb, 0xee, 0x18, 0xdd, 0x0a, 0x05,
                                            0x11, 0x11, 0xfe, 0xde, 0x0b, 0xcc, 0x08, 0x06, 0x15, 0xff, 0x0b, 0x19,
                                            0xe5, 0x1d, 0x1c, 0x09, 0xf8, 0x09, 0x23, 0x27, 0xf2, 0x23, 0x26, 0x03,
                                            0xf8, 0x0d, 0x15, 0xfc, 0xe0, 0x04, 0xe5, 0x0f, 0xfa, 0xf4, 0x16, 0x90,
                                            0x15, 0x10, 0xdb, 0x08, 0x1b, 0x1c, 0x08, 0xc2, 0x10, 0x19, 0xec, 0x15,
                                            0x19, 0x05, 0x08, 0x2a, 0x30, 0x1a, 0x21, 0x13, 0x10, 0x0f, 0x02, 0x5e,
                                            0x1a, 0x1a, 0x13, 0x06, 0x01, 0x04, 0xef, 0x54, 0xec, 0x10, 0x03, 0x07,
                                            0x09, 0x00, 0xe9, 0x36, 0xd2, 0xf5, 0xf7, 0xe5, 0xe7, 0xe6, 0xdb, 0xf1,
                                            0x41, 0x1b, 0x3a, 0xf4, 0x07, 0x11, 0x01, 0x22, 0x1b, 0x1d, 0x0f, 0xf4,
                                            0xfa, 0xf5, 0xef, 0x17, 0x0b, 0x1a, 0xea, 0xee, 0xed, 0x03, 0xd7, 0x05,
                                            0x14, 0x4d, 0x01, 0xfc, 0xf7, 0x03, 0xe7, 0x3e, 0xfa, 0x79, 0xfc, 0xe8,
                                            0xee, 0xf6, 0xf2, 0x26, 0xf3, 0x20, 0x07, 0xf2, 0x0d, 0xfd, 0xfd, 0xd1,
                                            0xe5, 0xe9, 0xdc, 0x17, 0x09, 0x13, 0x16, 0xa3, 0x03, 0xdc, 0xf1, 0x13,
                                            0x05, 0x1c, 0x0e, 0xe4, 0x1a, 0xf7, 0x0b, 0x17, 0x19, 0x0f, 0x22, 0x54,
                                            0xfe, 0x06, 0x1f, 0x0c, 0xf7, 0x0c, 0x05, 0x7f, 0xf2, 0x01, 0x1c, 0x07,
                                            0xfc, 0xf8, 0x00, 0x24, 0xe4, 0x01, 0x02, 0x10, 0x02, 0xf7, 0xf6, 0xe7,
                                            0xe9, 0x08, 0xf0, 0xe7, 0xee, 0xc6, 0xe9, 0xe9, 0xe1, 0x11, 0xef, 0xf8,
                                            0xf8, 0xdd, 0xfc, 0x32, 0xd8, 0x24, 0xc6, 0xd2, 0xe2, 0xd1, 0xd7, 0xe6,
                                            0xfe, 0x3c, 0xf2, 0xde, 0xdc, 0xd4, 0xc5, 0x12, 0x0a, 0x65, 0xea, 0xdf,
                                            0xf2, 0xea, 0xb7, 0x29, 0x05, 0x7b, 0xc9, 0xef, 0xeb, 0xec, 0xcd, 0xe8,
                                            0xe5, 0x05, 0xe6, 0xd6, 0xee, 0xf9, 0xe5, 0xb0, 0xfb, 0xff, 0xd4, 0x11,
                                            0x07, 0x15, 0x06, 0xaf, 0x01, 0xed, 0xe3, 0x08, 0xf7, 0xf4, 0x12, 0xee,
                                            0xed, 0xf3, 0xe1, 0x12, 0xf1, 0x03, 0xfe, 0x2d, 0xf7, 0xeb, 0x20, 0xff,
                                            0xf8, 0x0e, 0xf8, 0x2c, 0x10, 0x11, 0x04, 0xee, 0xf6, 0xf4, 0xfa, 0xe2,
                                            0x02, 0x20, 0xc9, 0xfe, 0xf0, 0xed, 0xec, 0xe1, 0xdd, 0x03, 0xeb, 0xec,
                                            0xfe, 0xf6, 0xf6, 0xe6, 0xc6, 0x14, 0xde, 0xec, 0xf6, 0xe7, 0x14, 0x16,
                                            0xe2, 0x0b, 0xd1, 0xd7, 0xf9, 0xf0, 0x06, 0x13, 0xe2, 0x41, 0xe9, 0xf3,
                                            0xea, 0xec, 0xe7, 0xee, 0xf3, 0x5d, 0xf0, 0xfa, 0xee, 0xd9, 0xda, 0xf0,
                                            0xd7, 0x5c, 0xd4, 0xdc, 0xd7, 0xe7, 0xf1, 0xbc, 0xf0, 0x46, 0xe5, 0xe0,
                                            0xea, 0xe2, 0x05, 0xb1, 0xe1, 0x1a, 0xf8, 0x0f, 0x00, 0xf2, 0x0d, 0xb9,
                                            0xcf, 0xe9, 0xc1, 0x09, 0xfd, 0x00, 0x0c, 0xaf, 0xf2, 0xf0, 0xe1, 0xf0,
                                            0xf2, 0xed, 0x06, 0xbb, 0x07, 0xf3, 0xf3, 0xf8, 0x02, 0xf7, 0xf2, 0xda,
                                            0xef, 0x11, 0xe3, 0x0a, 0xf4, 0xeb, 0xf2, 0xf2, 0xe4, 0xf7, 0xd9, 0xe5,
                                            0xe7, 0xe3, 0xf5, 0xde, 0xf8, 0xf6, 0xed, 0xe6, 0xf6, 0xdd, 0xf3, 0xed,
                                            0xe0, 0x08, 0xf9, 0xfb, 0xfd, 0xe0, 0x0e, 0xfa, 0x12, 0x05, 0x0b, 0xed,
                                            0xfc, 0x08, 0x02, 0xfd, 0x11, 0x15, 0xf3, 0x0d, 0x03, 0x07, 0x09, 0xdf,
                                            0x0a, 0x3d, 0xe6, 0xed, 0xf2, 0x02, 0x00, 0xcc, 0xe0, 0x3b, 0xe0, 0xf6,
                                            0xfd, 0xf8, 0x09, 0xa3, 0xe3, 0x38, 0xf0, 0xf0, 0xe9, 0xe6, 0x1a, 0xa2,
                                            0xe8, 0x1c, 0xfe, 0xf5, 0x0f, 0x09, 0x2c, 0x9d, 0xf2, 0x01, 0xdf, 0x0d,
                                            0x12, 0x05, 0x17, 0xad, 0x01, 0x08, 0xdf, 0xf1, 0xf7, 0xec, 0x0b, 0xb4,
                                            0xe6, 0xff, 0xc6, 0xf3, 0xf7, 0xf6, 0xf5, 0xa4, 0xf8, 0x14, 0xdf, 0x05,
                                            0xfb, 0xf4, 0x00, 0xcf, 0xee, 0x01, 0xda, 0x03, 0xfa, 0xfe, 0x01, 0xdc,
                                            0xf1, 0x0a, 0xd8, 0xe4, 0xea, 0xfd, 0x03, 0x12, 0xdb, 0x18, 0xe6, 0x0b,
                                            0x07, 0xda, 0x12, 0x21, 0x16, 0x0f, 0x19, 0xff, 0x24, 0x13, 0xfe, 0x11,
                                            0x19, 0x1a, 0x03, 0x0f, 0x0a, 0x1c, 0x0b, 0xfc, 0x02, 0x47, 0xeb, 0x0b,
                                            0x13, 0xf6, 0x27, 0xf4, 0xfc, 0x29, 0xd1, 0xf3, 0x12, 0x03, 0x2c, 0xe1,
                                            0x09, 0x3a, 0x0c, 0x13, 0x00, 0x0e, 0x34, 0xe5, 0x15, 0x3e, 0x1f, 0x18,
                                            0x07, 0x04, 0x48, 0xeb, 0x06, 0x47, 0x28, 0x04, 0x13, 0x1d, 0x40, 0xf0,
                                            0x0e, 0x1b, 0xfb, 0x01, 0xfd, 0x0f, 0x23, 0xee, 0xe0, 0x02, 0xd1, 0xf7,
                                            0xf3, 0x03, 0x06, 0xf2, 0xec, 0x01, 0xd5, 0xf3, 0x06, 0xf4, 0xfd, 0xf1,
                                            0xf2, 0xfe, 0xec, 0xeb, 0xef, 0xce, 0xfd, 0x03, 0xe1, 0xf0, 0xe5, 0xc7,
                                            0xe0, 0xc6, 0xd4, 0x00, 0x03, 0x14, 0x10, 0x12, 0x17, 0x08, 0x00, 0x2e,
                                            0x0b, 0x08, 0x1b, 0x17, 0x08, 0x04, 0x12, 0x20, 0x0d, 0x18, 0x06, 0x16,
                                            0x15, 0xfd, 0x09, 0x07, 0x04, 0x2e, 0x07, 0x09, 0x0e, 0x13, 0x01, 0xf2,
                                            0x19, 0x35, 0x1d, 0x1f, 0x16, 0x11, 0x28, 0xed, 0x02, 0x3c, 0x1a, 0x06,
                                            0x00, 0x09, 0x2d, 0xf4, 0x04, 0x1a, 0x3d, 0x03, 0xf4, 0xf7, 0x28, 0xfd,
                                            0x13, 0x43, 0x48, 0x0d, 0x02, 0xfb, 0x3d, 0xf0, 0xef, 0x0b, 0x1d, 0xf6,
                                            0x0a, 0x03, 0x04, 0xe2, 0xf3, 0xfe, 0x03, 0x09, 0xfa, 0xf7, 0x04, 0xfd,
                                            0xe5, 0x05, 0xf1, 0xe7, 0x05, 0xf8, 0x09, 0xd7, 0xed, 0x0c, 0x0e, 0xf8,
                                            0xe7, 0xea, 0xfd, 0xe5, 0xf3, 0xfe, 0x3c, 0xdd, 0xf4, 0xe0, 0xe6, 0xe6,
                                            0x04, 0xfe, 0xf9, 0x0e, 0x0b, 0xfe, 0xf6, 0xf6, 0x0b, 0x05, 0xfe, 0x0e,
                                            0x01, 0x17, 0x09, 0x0c, 0x0b, 0xff, 0x07, 0x11, 0x12, 0x1f, 0x00, 0x0b,
                                            0x0f, 0xfb, 0x16, 0xfa, 0xf5, 0x02, 0x11, 0xf9, 0x07, 0x07, 0xeb, 0xfc,
                                            0xec, 0xf7, 0xec, 0xf1, 0xf7, 0xfc, 0xe9, 0xf4, 0xe6, 0xf3, 0xf9, 0xf5,
                                            0xeb, 0xf8, 0xf4, 0x03, 0xec, 0xfc, 0xe8, 0x03, 0x0a, 0x00, 0xf9, 0xf9,
                                            0x00, 0xf4, 0xef, 0x08, 0x05, 0x0a, 0x03, 0x07, 0xfc, 0x0e, 0xf4, 0x12,
                                            0x21, 0x01, 0x12, 0x1d, 0x23, 0x19, 0x1b, 0x1c, 0x26, 0x07, 0x13, 0x15,
                                            0x0c, 0x11, 0x1e, 0x11, 0x07, 0x0a, 0x0b, 0x0c, 0xff, 0x01, 0x08, 0xf3,
                                            0xf3, 0xf3, 0xf9, 0x03, 0xf6, 0xff, 0x02, 0xf4, 0x12, 0x00, 0xff, 0x0a,
                                            0x0f, 0x16, 0x04, 0x00, 0x08, 0xf9, 0x12, 0xf0, 0x02, 0x04, 0x0a, 0x04,
                                            0x14, 0xfe, 0xf8, 0x00, 0x09, 0x0c, 0x03, 0x07, 0xf4, 0x0d, 0xf9, 0x09,
                                            0xf9, 0xf3, 0x04, 0xf7, 0x00, 0xff, 0xed, 0xfe, 0x0a, 0xfc, 0xf7, 0xfc,
                                            0x02, 0x10, 0x09, 0x0a, 0xf6, 0xf5, 0xf9, 0x07, 0xf5, 0x0e, 0xff, 0xf9,
                                            0xfa, 0x02, 0xf2, 0xfe, 0x00, 0x38, 0x03, 0x0c, 0xfe, 0x05, 0x08, 0x12,
                                            0x0e, 0x18, 0x14, 0x03, 0x01, 0x0c, 0x00, 0x04, 0x0a, 0x1a, 0xfe, 0x00,
                                            0x04, 0x0d, 0x0d, 0x09, 0x0f, 0x1c, 0xfc, 0x08, 0xf5, 0x0c, 0x00, 0x02,
                                            0x1d, 0x07, 0xfe, 0x11, 0x10, 0x17, 0x17, 0x0f, 0x1b, 0xfd, 0x09, 0xfd,
                                            0xfc, 0x06, 0x08, 0x11, 0x17, 0xf5, 0xed, 0xf8, 0xf4, 0x03, 0xfb, 0xe8,
                                            0xf2, 0xf5, 0xee, 0x05, 0xf4, 0xfa, 0xfb, 0xe9, 0xfc, 0x02, 0xe0, 0x03,
                                            0xfe, 0xff, 0xfb, 0xea, 0x09, 0x02, 0x03, 0x0b, 0x14, 0xfe, 0x04, 0xeb,
                                            0x02, 0x07, 0xff, 0xfd, 0x01, 0xfe, 0x05, 0xf7, 0x14, 0x25, 0xf9, 0xf8,
                                            0x04, 0x00, 0x02, 0xff, 0x05, 0x14, 0x0c, 0xfc, 0x0d, 0x00, 0xfc, 0x23,
                                            0x13, 0x1c, 0x0a, 0x09, 0x06, 0x0d, 0x16, 0x44, 0x1a, 0x24, 0x21, 0x14,
                                            0x09, 0x11, 0x0d, 0x28, 0x03, 0x2c, 0x0b, 0x12, 0x01, 0x03, 0x12, 0x14,
                                            0x11, 0x1a, 0x0e, 0x07, 0x0a, 0x01, 0x03, 0x28, 0x07, 0x0c, 0xfa, 0x11,
                                            0x00, 0x04, 0xf6, 0x2b, 0x06, 0x09, 0x13, 0x0f, 0x13, 0x1b, 0x0e, 0x0d,
                                            0xf9, 0xfd, 0xfd, 0xf0, 0xf7, 0xf0, 0xff, 0x07, 0xf8, 0xfa, 0xf0, 0xf2,
                                            0xec, 0xf0, 0xde, 0xf9, 0x0c, 0xfa, 0xf1, 0xf8, 0x0b, 0x0b, 0xed, 0xe4,
                                            0x01, 0x08, 0xf1, 0xfc, 0x0e, 0x03, 0xfd, 0xcd, 0xf7, 0x29, 0xee, 0xf4,
                                            0x00, 0x01, 0xfa, 0xd9, 0x0c, 0x3e, 0x03, 0xf8, 0x04, 0x00, 0xec, 0x28,
                                            0x13, 0x18, 0x23, 0x0c, 0x07, 0xff, 0xfc, 0x3e, 0x1c, 0x12, 0x32, 0x08,
                                            0x12, 0x15, 0xfb, 0x45, 0x10, 0x1b, 0x16, 0x18, 0x19, 0x0d, 0x02, 0x43,
                                            0x12, 0xf9, 0x0c, 0x0e, 0x14, 0x0e, 0x0b, 0x2e, 0x01, 0x01, 0x05, 0x0f,
                                            0xf7, 0x00, 0x07, 0x32, 0x06, 0xf8, 0xf9, 0x09, 0x05, 0xfe, 0xf2, 0x27,
                                            0x07, 0x13, 0x0e, 0x0d, 0x04, 0x05, 0xff, 0x24, 0xea, 0xfb, 0xe6, 0xe8,
                                            0xf0, 0xf7, 0xef, 0xf7, 0xf3, 0x08, 0xf4, 0xf3, 0xea, 0xf0, 0xe3, 0xd1,
                                            0x07, 0xff, 0xea, 0xfe, 0x12, 0x02, 0xf3, 0xb1, 0x07, 0x2a, 0x06, 0xff,
                                            0x0d, 0x0f, 0xfe, 0xbf, 0xff, 0x39, 0x01, 0x03, 0x12, 0x09, 0x1b, 0xea,
                                            0x19, 0x2d, 0x1f, 0x10, 0x20, 0x0b, 0x15, 0x14, 0x27, 0x1d, 0x36, 0x08,
                                            0x10, 0x01, 0x1a, 0x17, 0x10, 0x11, 0x22, 0x0d, 0xff, 0x08, 0x0a, 0x54,
                                            0x0f, 0xed, 0x36, 0x07, 0x0c, 0x07, 0x02, 0x7f, 0x0d, 0xda, 0x0c, 0xfc,
                                            0x05, 0x03, 0x08, 0x54, 0xef, 0xe5, 0x16, 0x0a, 0xf5, 0xfe, 0x09, 0x55,
                                            0xf7, 0xee, 0x1e, 0xf0, 0xf3, 0x02, 0x03, 0x20, 0x00, 0xfc, 0x08, 0x02,
                                            0x01, 0xfd, 0xf5, 0x00, 0xf8, 0xf7, 0xf9, 0xf2, 0x05, 0xfb, 0x06, 0xea,
                                            0xf9, 0x14, 0xe1, 0x13, 0x0a, 0x0e, 0x09, 0xd9, 0x07, 0x07, 0xfa, 0x0b,
                                            0x19, 0x24, 0x28, 0x9c, 0x1c, 0x34, 0x11, 0x19, 0x29, 0x1c, 0x3d, 0x8f,
                                            0x16, 0x23, 0x08, 0x2b, 0x23, 0x22, 0x37, 0x95, 0x3a, 0x10, 0x25, 0x2a,
                                            0x2e, 0x2e, 0x2b, 0xce, 0x24, 0x08, 0xfe, 0x21, 0x11, 0x14, 0x26, 0x25,
                                            0x23, 0xee, 0x20, 0x16, 0x15, 0x17, 0x0e, 0x56, 0x1c, 0xdf, 0x23, 0x10,
                                            0x0c, 0x0f, 0x23, 0x4a, 0x02, 0xdb, 0x22, 0x00, 0x05, 0x0a, 0x18, 0x38,
                                            0xfb, 0xd0, 0x01, 0x05, 0xff, 0x0b, 0x16, 0x0d, 0xfc, 0xe9, 0x12, 0x04,
                                            0x0d, 0xfe, 0x11, 0xfb, 0xed, 0xea, 0xfe, 0xe6, 0xe8, 0xf1, 0xf5, 0x03,
                                            0xfe, 0xfa, 0xe1, 0xef, 0xf4, 0xf7, 0xf4, 0xe0, 0x11, 0x01, 0xe6, 0x08,
                                            0x09, 0x0c, 0x09, 0xa4, 0x0f, 0x04, 0x16, 0x10, 0x23, 0x1a, 0x37, 0x99,
                                            0x01, 0x11, 0x17, 0x20, 0x0f, 0x21, 0x38, 0x81, 0x25, 0x0e, 0x2c, 0x30,
                                            0x23, 0x26, 0x34, 0x96, 0x20, 0xf4, 0x11, 0x21, 0x21, 0x0e, 0x3b, 0xf9,
                                            0x2f, 0x08, 0xf6, 0x18, 0x16, 0x1b, 0xf9, 0x53, 0x1b, 0xe4, 0x09, 0x0a,
                                            0x02, 0x11, 0xf7, 0x51, 0x02, 0xda, 0x06, 0x11, 0x14, 0x0b, 0x0b, 0x2d,
                                            0x00, 0xca, 0x0b, 0x02, 0x09, 0x10, 0x16, 0xfb, 0xed, 0xd0, 0x1a, 0x12,
                                            0x0b, 0x18, 0x22, 0xdf, 0x04, 0xda, 0xf9, 0x0c, 0x0d, 0x08, 0x13, 0xc4,
                                            0xe8, 0xef, 0xf1, 0xf4, 0xe2, 0xea, 0xe9, 0xd3, 0xec, 0xf6, 0xe7, 0xed,
                                            0xfe, 0xe7, 0x0a, 0xef, 0x0a, 0xed, 0x19, 0xfc, 0x0f, 0x0c, 0x15, 0x03,
                                            0xfc, 0xe9, 0x25, 0x15, 0x06, 0x0d, 0x25, 0xde, 0xf9, 0xcf, 0x37, 0x24,
                                            0x0e, 0x19, 0x47, 0xc7, 0x0b, 0xb7, 0x3d, 0x23, 0x0e, 0x12, 0x44, 0xde,
                                            0xfc, 0xe7, 0x20, 0xff, 0xf6, 0xf9, 0x1e, 0x30, 0x0d, 0xf3, 0x11, 0xe5,
                                            0xe9, 0xf6, 0xe1, 0x4b, 0x00, 0xd9, 0xff, 0xed, 0xef, 0xf2, 0xf2, 0x2e,
                                            0x01, 0xeb, 0x1b, 0x05, 0x0e, 0x13, 0x11, 0xf8, 0x09, 0xec, 0x0e, 0x0a,
                                            0x0b, 0x07, 0x20, 0xbe, 0x05, 0x00, 0xf2, 0x01, 0x06, 0x09, 0x15, 0xa7,
                                            0xf8, 0xfb, 0xe7, 0x18, 0x01, 0xfb, 0x1a, 0xa7, 0xf1, 0xec, 0xd4, 0xf8,
                                            0xe8, 0xe5, 0xef, 0xa2, 0xea, 0xf5, 0xf4, 0xfd, 0xf2, 0xf0, 0xf9, 0xfe,
                                            0xff, 0xfd, 0x1b, 0x01, 0xfb, 0xfe, 0x01, 0x1e, 0x02, 0xcc, 0x2b, 0x06,
                                            0x07, 0xff, 0x2a, 0x1d, 0xf0, 0xa6, 0x38, 0x02, 0x0d, 0x02, 0x30, 0xfb,
                                            0xe5, 0x97, 0x4a, 0x04, 0xfe, 0x03, 0x2f, 0x26, 0xec, 0xc3, 0x3c, 0xf8,
                                            0xf3, 0xf8, 0x14, 0x57, 0xe2, 0xc8, 0x19, 0xea, 0xe8, 0xec, 0xfa, 0x1a,
                                            0xf8, 0xfd, 0x12, 0xe3, 0xfe, 0x02, 0xee, 0xd9, 0x12, 0x20, 0x0b, 0x06,
                                            0x04, 0x17, 0x07, 0xd3, 0xfc, 0x20, 0xee, 0x10, 0x11, 0x04, 0x13, 0x9f,
                                            0x0c, 0x1b, 0xe1, 0xfe, 0x13, 0xfd, 0x03, 0x95, 0x04, 0x18, 0xe4, 0x0f,
                                            0x00, 0xff, 0x11, 0x96, 0xda, 0x05, 0xd0, 0xed, 0xec, 0xe8, 0xfc, 0xc4,
                                            0x02, 0xfa, 0xfc, 0xee, 0xee, 0xfb, 0xf8, 0xfa, 0xfa, 0xf6, 0x14, 0x07,
                                            0xf4, 0xf7, 0x05, 0xf5, 0x02, 0xdf, 0x13, 0x09, 0xf5, 0x00, 0x11, 0x16,
                                            0xf3, 0xb9, 0x30, 0xf7, 0x00, 0x02, 0x1e, 0x1a, 0x03, 0xb4, 0x27, 0xf9,
                                            0xfb, 0x03, 0x0f, 0x2e, 0xe5, 0xd4, 0x1a, 0xf4, 0x04, 0xed, 0x15, 0x22,
                                            0xf1, 0xe4, 0x22, 0xea, 0xfc, 0xf6, 0x01, 0x0d, 0xfe, 0x28, 0xfd, 0xf8,
                                            0xfb, 0x08, 0xff, 0xfc, 0xf9, 0x44, 0xf0, 0xf2, 0x05, 0xfb, 0xf7, 0xe5,
                                            0x0e, 0x28, 0xb6, 0x06, 0xff, 0x07, 0xf9, 0xaa, 0xfc, 0x1e, 0xc0, 0xfb,
                                            0x02, 0x04, 0xf1, 0x9f, 0xf4, 0x1c, 0xc8, 0xf9, 0x01, 0xf7, 0x00, 0xd1,
                                            0xd9, 0xec, 0xd5, 0xe3, 0xe1, 0xe9, 0xf1, 0xdc, 0xea, 0x02, 0xf8, 0x07,
                                            0xff, 0xf5, 0x0f, 0x02, 0x03, 0xf5, 0x1c, 0xfa, 0x01, 0xf9, 0x01, 0x1c,
                                            0xfc, 0xd5, 0x0f, 0x0d, 0xf7, 0x00, 0x0c, 0x27, 0xfd, 0xc9, 0x12, 0x0a,
                                            0x01, 0x04, 0x11, 0x1d, 0xf1, 0xca, 0x32, 0x01, 0x05, 0x04, 0x19, 0x19,
                                            0xfe, 0xe7, 0x4b, 0x0c, 0x01, 0x07, 0x11, 0x1e, 0x07, 0x16, 0x2b, 0x09,
                                            0x09, 0x12, 0x00, 0x16, 0x02, 0x2d, 0x0b, 0xf7, 0x10, 0x12, 0x04, 0xf7,
                                            0x0e, 0x24, 0xdf, 0x05, 0x0f, 0xfd, 0xf0, 0xdb, 0xfd, 0x14, 0xba, 0xfc,
                                            0xff, 0xfe, 0xea, 0xc1, 0x0f, 0x1d, 0xcf, 0x02, 0x10, 0xf5, 0xff, 0xb5,
                                            0xec, 0x09, 0xcf, 0x04, 0xf4, 0x04, 0xef, 0xca, 0xf5, 0xf8, 0xf2, 0xfb,
                                            0xf9, 0xf5, 0xe7, 0xdf, 0x07, 0xfe, 0xf8, 0x0a, 0xf9, 0x0f, 0x02, 0x01,
                                            0xf4, 0xf7, 0xee, 0x06, 0x0e, 0x00, 0x16, 0xe8, 0xf8, 0xe4, 0x00, 0xff,
                                            0xfe, 0x08, 0x1c, 0x04, 0x0f, 0xe3, 0x0b, 0x0a, 0xfc, 0x05, 0x02, 0x06,
                                            0x05, 0xf5, 0x20, 0xf9, 0xff, 0xfd, 0x09, 0x1a, 0x07, 0x04, 0x20, 0xf8,
                                            0x0e, 0x0c, 0xfe, 0x18, 0x0f, 0x11, 0x13, 0x0c, 0x14, 0x07, 0xf5, 0x12,
                                            0x0e, 0x18, 0xef, 0x02, 0x0f, 0x0e, 0xfb, 0x0f, 0x00, 0x0a, 0xda, 0x00,
                                            0xff, 0x0c, 0xf0, 0x00, 0x06, 0xff, 0xbb, 0x11, 0x10, 0x0a, 0xf6, 0xd8,
                                            0xff, 0xfc, 0xd2, 0xfb, 0x0c, 0x08, 0xf3, 0xdb, 0x04, 0xfb, 0xfa, 0xfe,
                                            0x07, 0x03, 0x0a, 0xf0, 0x08, 0x09, 0xf2, 0xfd, 0x04, 0xf9, 0xfa, 0xf7,
                                            0x20, 0xf2, 0x18, 0x02, 0x11, 0x22, 0xfb, 0x0e, 0x34, 0x04, 0x2d, 0x2e,
                                            0x27, 0x39, 0x0f, 0x2c, 0x1f, 0x13, 0x0f, 0x25, 0x2a, 0x23, 0x2a, 0x16,
                                            0x14, 0x15, 0x12, 0x2b, 0x27, 0x19, 0x1f, 0x12, 0x1a, 0x17, 0x03, 0x14,
                                            0x27, 0x1b, 0x26, 0x0a, 0x14, 0x15, 0xff, 0x1f, 0x1c, 0x18, 0x1d, 0x05,
                                            0x12, 0x10, 0x02, 0x0d, 0x1c, 0x13, 0x1b, 0x0d, 0x13, 0x12, 0x02, 0x1f,
                                            0x13, 0x0b, 0x1c, 0x16, 0x0f, 0x15, 0x0d, 0x0b, 0x11, 0x19, 0x31, 0x0b,
                                            0x12, 0x04, 0x15, 0x0b, 0x05, 0x12, 0x11, 0xee, 0x0f, 0xfc, 0x06, 0x0d,
                                            0x17, 0x20, 0x25, 0xfc, 0x0c, 0xfb, 0xe7, 0x05, 0x11, 0x1b, 0x10, 0xff,
                                            0x06, 0xfc, 0xf0, 0x02, 0x09, 0x08, 0x06, 0xe8, 0x32, 0x47, 0x55, 0x34,
                                            0xdb, 0xe2, 0xf4, 0xab, 0x96, 0x22, 0xaa, 0xad, 0x84, 0xb0, 0x22, 0xc4,
                                            0x9e, 0x4a, 0xa2, 0xca, 0x3c, 0xf7, 0x3b, 0x8d, 0xa2, 0x17, 0x49, 0x93,
                                            0x50, 0xd0, 0xe2, 0xc0, 0x22, 0xb9, 0xd5, 0xb6, 0xa5, 0x07, 0x0b, 0x60,
                                            0x8a, 0x16, 0xef, 0x41, 0xbb, 0xa6, 0xe9, 0xc1, 0x21, 0x04, 0x11, 0x56,
                                            0xc3, 0xd2, 0x0d, 0x54, 0xcd, 0x41, 0xf1, 0xcd, 0x56, 0xfe, 0xd6, 0x2c,
                                            0x0b, 0xf4, 0xbc, 0xa2, 0x4e, 0x90, 0x3e, 0x5a, 0xce, 0x17, 0x4a, 0x2c,
                                            0x12, 0xbb, 0xb4, 0x4c, 0xf9, 0x27, 0x45, 0xd7, 0x00, 0xc2, 0x81, 0x22,
                                            0x89, 0x44, 0xcc, 0x27, 0xec, 0x52, 0xf6, 0x04, 0x20, 0x8d, 0xad, 0xd1,
                                            0xa3, 0xd4, 0x3e, 0xb8, 0xbc, 0x4e, 0x44, 0x18, 0x2f, 0x43, 0xdc, 0x07,
                                            0xa8, 0xe4, 0xf4, 0x3b, 0xa1, 0x0d, 0x43, 0xa9, 0xd6, 0x05, 0x42, 0xf5,
                                            0x3f, 0xfa, 0xad, 0xf7, 0xf7, 0x31, 0xcb, 0x57, 0x5d, 0xb7, 0x94, 0xd3,
                                            0x50, 0xa3, 0x17, 0xf5, 0x64, 0x0e, 0xe3, 0xe5, 0x23, 0xa3, 0xe0, 0xd8,
                                            0x69, 0xcb, 0xe9, 0xcb, 0xcd, 0x48, 0xb2, 0x3b, 0xa4, 0xae, 0xdd, 0x70,
                                            0x1d, 0x4f, 0x0d, 0x5d, 0xb4, 0xd4, 0xac, 0x4f, 0x2c, 0x4a, 0x41, 0x57,
                                            0xa9, 0xd5, 0xf8, 0x24, 0xb7, 0x50, 0x23, 0x01, 0x96, 0x3f, 0xef, 0xad,
                                            0xc5, 0x39, 0xf7, 0xdc, 0xe0, 0xa1, 0xbd, 0xc9, 0xe0, 0xee, 0xfc, 0xb2,
                                            0xdc, 0x99, 0xaa, 0xdc, 0x54, 0xe5, 0xf4, 0x51, 0x0a, 0xfa, 0x94, 0x14,
                                            0x19, 0x22, 0xc3, 0xb5, 0x4a, 0xb9, 0xa2, 0xe3, 0x3b, 0x8e, 0x43, 0x08,
                                            0xf8, 0x28, 0xf9, 0xdb, 0x49, 0x26, 0xb6, 0x35, 0xe8, 0xb9, 0x95, 0x71,
                                            0x27, 0x31, 0xc7, 0xca, 0x47, 0xfd, 0x4b, 0xe6, 0x5c, 0x9c, 0x31, 0x51,
                                            0xd8, 0x29, 0xab, 0x6e, 0x3e, 0x01, 0x99, 0x03, 0x0b, 0x4a, 0x05, 0xa4,
                                            0x61, 0x31, 0xd1, 0x08, 0xfb, 0x50, 0x24, 0x8b, 0x1c, 0x35, 0xff, 0x0a,
                                            0xf2, 0xb8, 0x3b, 0x16, 0xf3, 0xf8, 0x02, 0xa9, 0x3b, 0x83, 0xfe, 0x85,
                                            0xac, 0x2e, 0xf5, 0xda, 0x23, 0x96, 0x2b, 0x0f, 0x19, 0x4a, 0xe9, 0xa8,
                                            0x12, 0x4c, 0x54, 0x06, 0xcc, 0x0b, 0x93, 0x37, 0x1f, 0x56, 0xc2, 0x4c,
                                            0xc3, 0xea, 0xde, 0x05, 0xbd, 0x45, 0xf4, 0xfa, 0xc8, 0x93, 0xb2, 0x93,
                                            0x1e, 0xe2, 0x3f, 0x32, 0xf9, 0xfa, 0x74, 0xe9, 0xfb, 0xde, 0xf8, 0x34,
                                            0xf9, 0xe2, 0xb2, 0x4a, 0x48, 0x39, 0xb0, 0xd8, 0xe6, 0xf8, 0xf0, 0x9c,
                                            0xdb, 0xe9, 0xd7, 0xda, 0x3a, 0x34, 0x4b, 0xd8, 0xe8, 0x43, 0x9f, 0x17,
                                            0x5e, 0x53, 0xe5, 0xab, 0x47, 0x19, 0xb0, 0x40, 0x1f, 0x9f, 0xcf, 0x96,
                                            0x88, 0x8f, 0xb0, 0x27, 0xfd, 0xb8, 0x14, 0x8c, 0x1b, 0xdc, 0x50, 0x13,
                                            0x8f, 0xea, 0xd4, 0x49, 0x4a, 0xf5, 0x29, 0x99, 0xa2, 0x23, 0x3f, 0x02,
                                            0xed, 0x56, 0x04, 0x34, 0x46, 0x4b, 0x27, 0xe8, 0x3a, 0x0b, 0x2d, 0x04,
                                            0x4c, 0x9f, 0x1d, 0x54, 0x30, 0x27, 0xeb, 0x4a, 0xca, 0xcf, 0x9f, 0xb4,
                                            0x04, 0x42, 0x4c, 0xab, 0xde, 0xda, 0x38, 0xe1, 0x94, 0xed, 0x06, 0x96,
                                            0x65, 0x0d, 0x75, 0xd4, 0xe1, 0xd3, 0x02, 0x9d, 0x51, 0x9c, 0x56, 0x57,
                                            0xa3, 0x59, 0x50, 0xa1, 0x21, 0xf7, 0xe1, 0x10, 0x35, 0x01, 0x2e, 0x24,
                                            0xe9, 0xaf, 0x92, 0x8d, 0xe0, 0x85, 0xa6, 0xe7, 0xed, 0xda, 0xfe, 0x11,
                                            0xa6, 0xf9, 0xf0, 0xd6, 0x96, 0xb9, 0x1a, 0x1e, 0xb6, 0x4e, 0x86, 0xcf,
                                            0x8e, 0x29, 0x27, 0xcf, 0xfd, 0xe2, 0xe9, 0x23, 0xd9, 0x4f, 0xce, 0x05,
                                            0xcd, 0x12, 0x2c, 0x40, 0x24, 0xd0, 0xad, 0x3f, 0x53, 0xa3, 0xd6, 0xd3,
                                            0x58, 0x84, 0xa5, 0xbe, 0xde, 0x97, 0xc7, 0xbe, 0xa5, 0x27, 0xfc, 0xc5,
                                            0xdc, 0x37, 0x02, 0x1a, 0xe6, 0x3b, 0x44, 0xbe, 0x2c, 0x29, 0x9c, 0xea,
                                            0xee, 0x88, 0xa3, 0x07, 0x0b, 0x40, 0xa3, 0x1d, 0xe2, 0x13, 0xf5, 0x42,
                                            0xa8, 0xa3, 0x15, 0xcf, 0xff, 0xe8, 0xfa, 0xf4, 0x4b, 0x34, 0xa8, 0xff,
                                            0xb5, 0xb1, 0x3c, 0x1e, 0x45, 0xf3, 0xe5, 0x4f, 0x23, 0xe7, 0xf8, 0xda,
                                            0xf9, 0xd1, 0xed, 0x1e, 0xd0, 0xa0, 0x91, 0x3e, 0xe4, 0x22, 0x87, 0x20,
                                            0xd8, 0xc5, 0x48, 0x9f, 0x93, 0x8a, 0xc3, 0x96, 0x92, 0xb0, 0x23, 0x4d,
                                            0xb5, 0x49, 0xe3, 0xef, 0x03, 0xbf, 0x41, 0xb9, 0x01, 0xce, 0x45, 0xd0,
                                            0x44, 0xeb, 0x00, 0xcc, 0xdc, 0xec, 0xb7, 0xff, 0xfb, 0x9d, 0x3f, 0x9f,
                                            0xba, 0xa1, 0x26, 0x9f, 0x64, 0x9a, 0x63, 0x22, 0x22, 0xd9, 0xaa, 0xb0,
                                            0xdf, 0x29, 0xfd, 0x0f, 0xb4, 0x49, 0x38, 0xbe, 0x45, 0x87, 0x1c, 0x45,
                                            0xbc, 0xb1, 0xcc, 0x34, 0xb8, 0xd4, 0x1b, 0xa4, 0x3f, 0x2a, 0xe0, 0xbe,
                                            0xa6, 0x22, 0x97, 0xca, 0x22, 0x8e, 0xc6, 0xc1, 0xe9, 0x38, 0x4a, 0xf0,
                                            0xea, 0xce, 0xe1, 0xf5, 0x09, 0x99, 0x51, 0xb0, 0x21, 0xac, 0xba, 0x54,
                                            0x92, 0xd3, 0xc6, 0xff, 0xeb, 0x23, 0xc4, 0xa5, 0x4c, 0x9f, 0xe0, 0xdc,
                                            0x30, 0x19, 0x95, 0x24, 0x90, 0x11, 0xfd, 0x07, 0xd8, 0xdb, 0x0e, 0x4b,
                                            0xe1, 0xb0, 0xbc, 0xd3, 0x1b, 0x56, 0x52, 0x5b, 0xc4, 0x3a, 0x38, 0x8e,
                                            0x56, 0xa8, 0x4f, 0x32, 0x37, 0x44, 0xb7, 0xe9, 0x46, 0x25, 0xf3, 0x00,
                                            0xc9, 0x31, 0xd7, 0xee, 0x20, 0xf3, 0x1e, 0x27, 0xe3, 0xbd, 0x6a, 0x9e,
                                            0xf8, 0x35, 0x05, 0xf7, 0x0d, 0x93, 0xa1, 0x4f, 0xbe, 0x51, 0x48, 0x25,
                                            0xb6, 0xc1, 0x39, 0x13, 0x9d, 0xc5, 0x02, 0xff, 0xf6, 0xb8, 0xd0, 0x65,
                                            0xc5, 0xcd, 0x32, 0x36, 0x42, 0x6b, 0x3c, 0x08, 0x88, 0xc0, 0xb3, 0x43,
                                            0x45, 0xd4, 0xaf, 0x8a, 0x35, 0x2c, 0x3f, 0xbe, 0xd4, 0xfa, 0xa5, 0x40,
                                            0x41, 0xc5, 0xfa, 0xd2, 0xd8, 0x38, 0xa2, 0xec, 0xb8, 0xf3, 0xa1, 0xd2,
                                            0x47, 0x4a, 0xaf, 0xac, 0xda, 0xf5, 0xbf, 0x40, 0x03, 0x59, 0xdd, 0xb2,
                                            0x8e, 0x9f, 0xc8, 0x27, 0x33, 0xfd, 0xde, 0x3a, 0x8a, 0xfb, 0x1d, 0x26,
                                            0x0a, 0xac, 0xfd, 0x9a, 0xc5, 0x3b, 0x92, 0x31, 0xf4, 0x43, 0xf5, 0xc0,
                                            0xdf, 0xe8, 0xd2, 0xc4, 0xbf, 0xca, 0x2e, 0x01, 0x2f, 0x32, 0xc5, 0xea,
                                            0xc4, 0x94, 0x5d, 0xb3, 0xf2, 0x9b, 0x32, 0xe2, 0xac, 0xf9, 0x20, 0x40,
                                            0x4f, 0x31, 0xca, 0x8e, 0x0f, 0xc7, 0xd8, 0x6b, 0x1a, 0x45, 0x49, 0x5e,
                                            0x2e, 0xe1, 0x23, 0x15, 0x0d, 0x34, 0xca, 0xab, 0x13, 0x11, 0xeb, 0xbc,
                                            0x32, 0xef, 0x52, 0x1a, 0x55, 0x36, 0xd4, 0xf0, 0xa2, 0x3a, 0x8f, 0xe8,
                                            0x58, 0x2d, 0x3c, 0x1b, 0x45, 0x99, 0x4d, 0x0d, 0x32, 0x9a, 0x93, 0x05,
                                            0xcf, 0xa2, 0xf7, 0xf8, 0x34, 0xa4, 0x1c, 0x9b, 0x0c, 0xc9, 0xe0, 0xb8,
                                            0xf7, 0xeb, 0x28, 0xc2, 0xce, 0x43, 0xd5, 0x45, 0x40, 0x32, 0xe5, 0xbe,
                                            0x00, 0xf7, 0xbc, 0x54, 0xe1, 0xa0, 0xa2, 0xef, 0x54, 0xdd, 0x2a, 0xd5,
                                            0x17, 0x57, 0x0c, 0xbc, 0xd4, 0x50, 0x6c, 0xab, 0x28, 0x9b, 0xff, 0xa8,
                                            0x53, 0xff, 0x2a, 0x2c, 0x2e, 0xb9, 0x2e, 0xe5, 0x33, 0x26, 0xc2, 0x1f,
                                            0xc1, 0xdd, 0xde, 0x01, 0xd4, 0xd2, 0xea, 0x5e, 0x08, 0x5c, 0xcc, 0x0b,
                                            0xac, 0xb6, 0xe8, 0x9c, 0x10, 0xfd, 0xf3, 0xd2, 0x52, 0xb9, 0xe9, 0x3b,
                                            0xf8, 0xd5, 0xfc, 0xf0, 0xad, 0xb2, 0xb8, 0x1f, 0x07, 0x0b, 0xa4, 0xc0,
                                            0x0d, 0xf6, 0x98, 0x46, 0xe4, 0x41, 0xfc, 0xd9, 0xc5, 0xfb, 0xa9, 0xd7,
                                            0xd4, 0xfe, 0x4e, 0xf2, 0x12, 0xed, 0x2b, 0x97, 0xf4, 0xe8, 0x43, 0x9a,
                                            0x0f, 0x05, 0xfb, 0xa3, 0x6c, 0x95, 0xdd, 0x57, 0xff, 0x4a, 0xa3, 0x25,
                                            0xca, 0x68, 0xdb, 0x4d, 0x1c, 0x50, 0xdd, 0xd9, 0xf2, 0xbb, 0x28, 0xda,
                                            0xfa, 0xd1, 0xf1, 0x2d, 0x18, 0x17, 0x12, 0x09, 0xf2, 0x66, 0xf9, 0x30,
                                            0x29, 0x0a, 0xd2, 0x14, 0x30, 0xd8, 0xfa, 0x31, 0x53, 0x4e, 0x3f, 0x07,
                                            0xa8, 0xfe, 0xe7, 0x3f, 0x5c, 0x29, 0x45, 0xc2, 0xea, 0xb7, 0xd2, 0x21,
                                            0x05, 0x48, 0x53, 0xcb, 0x00, 0x4d, 0xb6, 0x56, 0xc3, 0xc6, 0xdd, 0xa6,
                                            0xb3, 0xa4, 0xe2, 0x09, 0x00, 0xa3, 0xae, 0xda, 0xfa, 0xd1, 0xf7, 0xe1,
                                            0xfe, 0x12, 0xf4, 0xe1, 0xf2, 0xd3, 0x35, 0x9b, 0xd3, 0x92, 0xe8, 0xaf,
                                            0x0e, 0x16, 0x2c, 0xa3, 0xdb, 0xc6, 0xed, 0xa7, 0xca, 0x44, 0xb6, 0x55,
                                            0x51, 0x4c, 0x9e, 0x29, 0x14, 0x3d, 0xbb, 0xc6, 0x9a, 0xd8, 0x45, 0x94,
                                            0xb3, 0x17, 0x03, 0xfd, 0xaf, 0x18, 0x2d, 0xe8, 0x05, 0xe2, 0x9a, 0x49,
                                            0x1d, 0x4f, 0x33, 0x1f, 0x13, 0x02, 0x02, 0xcf, 0xa6, 0xb4, 0x0b, 0xe4,
                                            0xce, 0x50, 0x2c, 0xd0, 0x18, 0xc4, 0x48, 0x17, 0xfd, 0x5a, 0x25, 0xb0,
                                            0x3a, 0xf3, 0x9a, 0xd0, 0x09, 0xd7, 0x12, 0xc4, 0x97, 0x3f, 0xaa, 0x55,
                                            0xd4, 0x3f, 0x97, 0x9a, 0x38, 0xe8, 0xf2, 0x38, 0x34, 0x90, 0xf0, 0xe0,
                                            0x50, 0x98, 0x42, 0x32, 0x84, 0x83, 0x53, 0xd1, 0x3f, 0x1e, 0xce, 0x96,
                                            0x4c, 0xa7, 0xe3, 0xd3, 0xee, 0xe9, 0xfe, 0xcd, 0x9e, 0xd9, 0xea, 0xbc,
                                            0x48, 0xf1, 0x2b, 0x49, 0x91, 0xc5, 0xee, 0xf9, 0x4a, 0x3a, 0xa0, 0x28,
                                            0x28, 0x03, 0xdd, 0xf8, 0x13, 0xd6, 0xf4, 0xb7, 0xc6, 0x9c, 0xeb, 0x0c,
                                            0xa8, 0xf1, 0x37, 0x04, 0x8d, 0x58, 0x20, 0xa6, 0xf2, 0xc9, 0x2c, 0x38,
                                            0x95, 0xcc, 0x27, 0xc3, 0xab, 0x02, 0x9e, 0xec, 0x03, 0x4e, 0x38, 0xd4,
                                            0x43, 0xb5, 0x46, 0xc7, 0x93, 0x1c, 0xf1, 0x12, 0x19, 0x43, 0x38, 0xa6,
                                            0x56, 0xc2, 0x9f, 0x59, 0xb5, 0xa5, 0xa9, 0xee, 0xd2, 0x9f, 0xf5, 0xb3,
                                            0x54, 0xce, 0xbe, 0x48, 0x43, 0x1a, 0x1f, 0xcd, 0x06, 0x0f, 0x04, 0x04,
                                            0x49, 0x20, 0x5f, 0x52, 0x3f, 0xd0, 0x05, 0x3a, 0xdf, 0xf7, 0x35, 0x47,
                                            0xa6, 0x39, 0xd1, 0xb8, 0xc6, 0xc1, 0xce, 0x93, 0xb2, 0x0f, 0x4f, 0x1d,
                                            0xa2, 0xaa, 0x86, 0x35, 0xba, 0xcf, 0xee, 0x00, 0x12, 0x9c, 0x24, 0x2f,
                                            0xf0, 0xbe, 0xc3, 0x94, 0xdf, 0x8a, 0xa1, 0x48, 0x2e, 0x19, 0xda, 0x23,
                                            0xfa, 0xad, 0x07, 0xad, 0x07, 0x12, 0x50, 0x0f, 0x01, 0x18, 0x1c, 0x1d,
                                            0x11, 0x12, 0x56, 0x19, 0x01, 0x11, 0x11, 0x11, 0x1d, 0x15, 0x33, 0x16,
                                            0x11, 0x18, 0x1d, 0x20, 0x1c, 0x1a, 0x38, 0x02, 0x06, 0xfd, 0x15, 0x0d,
                                            0x22, 0x16, 0x29, 0x12, 0x08, 0x11, 0x10, 0x0c, 0x22, 0x27, 0x20, 0x13,
